{
  "version": "1.0",
  "truncation": null,
  "padding": null,
  "added_tokens": [
    {
      "id": 0,
      "content": "[PAD]",
      "single_word": false,
      "lstrip": false,
      "rstrip": false,
      "normalized": false,
      "special": true
    },
    {
      "id": 1,
      "content": "[UNK]",
      "single_word": false,
      "lstrip": false,
      "rstrip": false,
      "normalized": false,
      "special": true
    },
    {
      "id": 2,
      "content": "[CLS]",
      "single_word": false,
      "lstrip": false,
      "rstrip": false,
      "normalized": false,
      "special": true
    },
    {
      "id": 3,
      "content": "[SEP]",
      "single_word": false,
      "lstrip": false,
      "rstrip": false,
      "normalized": false,
      "special": true
    },
    {
      "id": 4,
      "content": "[MASK]",
      "single_word": false,
      "lstrip": false,
      "rstrip": false,
      "normalized": false,
      "special": true
    }
  ],
  "normalizer": {
    "type": "BertNormalizer",
    "clean_text": true,
    "handle_chinese_chars": true,
    "strip_accents": null,
    "lowercase": true
  },
  "pre_tokenizer": {
    "type": "BertPreTokenizer"
  },
  "post_processor": {
    "type": "TemplateProcessing",
    "single": [
      {
        "SpecialToken": {
          "id": "[CLS]",
          "type_id": 0
        }
      },
      {
        "Sequence": {
          "id": "A",
          "type_id": 0
        }
      },
      {
        "SpecialToken": {
          "id": "[SEP]",
          "type_id": 0
        }
      }
    ],
    "pair": [
      {
        "SpecialToken": {
          "id": "[CLS]",
          "type_id": 0
        }
      },
      {
        "Sequence": {
          "id": "A",
          "type_id": 0
        }
      },
      {
        "SpecialToken": {
          "id": "[SEP]",
          "type_id": 0
        }
      },
      {
        "Sequence": {
          "id": "B",
          "type_id": 1
        }
      },
      {
        "SpecialToken": {
          "id": "[SEP]",
          "type_id": 1
        }
      }
    ],
    "special_tokens": {
      "[CLS]": {
        "id": "[CLS]",
        "ids": [
          2
        ],
        "tokens": [
          "[CLS]"
        ]
      },
      "[SEP]": {
        "id": "[SEP]",
        "ids": [
          3
        ],
        "tokens": [
          "[SEP]"
        ]
      }
    }
  },
  "decoder": {
    "type": "WordPiece",
    "prefix": "##",
    "cleanup": true
  },
  "model": {
    "type": "WordPiece",
    "unk_token": "[UNK]",
    "continuing_subword_prefix": "##",
    "max_input_chars_per_word": 100,
    "vocab": {
      "[PAD]": 0,
      "[UNK]": 1,
      "[CLS]": 2,
      "[SEP]": 3,
      "[MASK]": 4,
      "\"": 5,
      "'": 6,
      ")": 7,
      "\\": 8,
      "]": 9,
      "`": 10,
      "i": 11,
      "{": 12,
      "}": 13,
      "~": 14,
      "¢": 15,
      "£": 16,
      "¤": 17,
      "¥": 18,
      "¨": 19,
      "ª": 20,
      "«": 21,
      "¬": 22,
      "°": 23,
      "±": 24,
      "´": 25,
      "·": 26,
      "¸": 27,
      "º": 28,
      "¾": 29,
      "×": 30,
      "à": 31,
      "á": 32,
      "ã": 33,
      "ä": 34,
      "å": 35,
      "æ": 36,
      "ç": 37,
      "è": 38,
      "é": 39,
      "ê": 40,
      "ì": 41,
      "í": 42,
      "ï": 43,
      "ñ": 44,
      "ó": 45,
      "ô": 46,
      "õ": 47,
      "÷": 48,
      "ø": 49,
      "ú": 50,
      "û": 51,
      "ü": 52,
      "þ": 53,
      "ı": 54,
      "ł": 55,
      "œ": 56,
      "š": 57,
      "ʻ": 58,
      "ʼ": 59,
      "ʽ": 60,
      "ˆ": 61,
      "ː": 62,
      "˚": 63,
      "˝": 64,
      "̇": 65,
      "̒": 66,
      "̓": 67,
      "̭": 68,
      "̯": 69,
      "̷": 70,
      "π": 71,
      "҆": 72,
      "ا": 73,
      "ة": 74,
      "ح": 75,
      "ر": 76,
      "ع": 77,
      "ق": 78,
      "ك": 79,
      "ل": 80,
      "م": 81,
      "و": 82,
      "ي": 83,
      "߁": 84,
      "ँ": 85,
      "ं": 86,
      "ः": 87,
      "अ": 88,
      "आ": 89,
      "इ": 90,
      "ई": 91,
      "उ": 92,
      "ऊ": 93,
      "ऋ": 94,
      "ऍ": 95,
      "ऎ": 96,
      "ए": 97,
      "ऐ": 98,
      "ऑ": 99,
      "ओ": 100,
      "औ": 101,
      "क": 102,
      "ख": 103,
      "ग": 104,
      "घ": 105,
      "ङ": 106,
      "च": 107,
      "छ": 108,
      "ज": 109,
      "झ": 110,
      "ञ": 111,
      "ट": 112,
      "ठ": 113,
      "ड": 114,
      "ढ": 115,
      "ण": 116,
      "त": 117,
      "थ": 118,
      "द": 119,
      "ध": 120,
      "न": 121,
      "प": 122,
      "फ": 123,
      "ब": 124,
      "भ": 125,
      "म": 126,
      "य": 127,
      "र": 128,
      "ऱ": 129,
      "ल": 130,
      "ळ": 131,
      "व": 132,
      "श": 133,
      "ष": 134,
      "स": 135,
      "ह": 136,
      "़": 137,
      "ऽ": 138,
      "ा": 139,
      "ि": 140,
      "ी": 141,
      "ु": 142,
      "ू": 143,
      "ृ": 144,
      "ॄ": 145,
      "ॅ": 146,
      "ॆ": 147,
      "े": 148,
      "ै": 149,
      "ॉ": 150,
      "ॊ": 151,
      "ो": 152,
      "ौ": 153,
      "्": 154,
      "ॐ": 155,
      "क़": 156,
      "ज़": 157,
      "ड़": 158,
      "ढ़": 159,
      "फ़": 160,
      "य़": 161,
      "ॠ": 162,
      "।": 163,
      "॥": 164,
      "ॴ": 165,
      "ॽ": 166,
      "১": 167,
      "ᤃ": 168,
      "ᤒ": 169,
      "ᤗ": 170,
      "ᤠ": 171,
      "ᤡ": 172,
      "ᤢ": 173,
      "ᤩ": 174,
      "ᤴ": 175,
      "ᤶ": 176,
      "‐": 177,
      "–": 178,
      "—": 179,
      "―": 180,
      "‚": 181,
      "†": 182,
      "‡": 183,
      "…": 184,
      "‰": 185,
      "″": 186,
      "‹": 187,
      "›": 188,
      "⁄": 189,
      "€": 190,
      "₹": 191,
      "⃣": 192,
      "™": 193,
      "→": 194,
      "∆": 195,
      "−": 196,
      "∕": 197,
      "∙": 198,
      "∞": 199,
      "≈": 200,
      "≤": 201,
      "⋲": 202,
      "▶": 203,
      "◀": 204,
      "☀": 205,
      "☔": 206,
      "♂": 207,
      "♦": 208,
      "♯": 209,
      "⚽": 210,
      "✅": 211,
      "✋": 212,
      "✌": 213,
      "✖": 214,
      "✨": 215,
      "❣": 216,
      "❤": 217,
      "➡": 218,
      "⬇": 219,
      "さ": 220,
      "ま": 221,
      "️": 222,
      "％": 223,
      "￼": 224,
      "🇦": 225,
      "🇧": 226,
      "🇨": 227,
      "🇩": 228,
      "🇪": 229,
      "🇬": 230,
      "🇭": 231,
      "🇮": 232,
      "🇯": 233,
      "🇰": 234,
      "🇱": 235,
      "🇲": 236,
      "🇳": 237,
      "🇴": 238,
      "🇵": 239,
      "🇷": 240,
      "🇸": 241,
      "🇹": 242,
      "🇺": 243,
      "🇻": 244,
      "🇾": 245,
      "🌎": 246,
      "🌙": 247,
      "🌡": 248,
      "🎉": 249,
      "🎊": 250,
      "🎙": 251,
      "🎶": 252,
      "🏏": 253,
      "🏻": 254,
      "🏼": 255,
      "🏽": 256,
      "🏾": 257,
      "🐏": 258,
      "🐽": 259,
      "🐾": 260,
      "👇": 261,
      "👉": 262,
      "👊": 263,
      "👌": 264,
      "👍": 265,
      "👏": 266,
      "👻": 267,
      "💃": 268,
      "💋": 269,
      "💥": 270,
      "💪": 271,
      "📢": 272,
      "📷": 273,
      "🔥": 274,
      "😂": 275,
      "😃": 276,
      "😅": 277,
      "😇": 278,
      "😈": 279,
      "😉": 280,
      "😊": 281,
      "😏": 282,
      "😐": 283,
      "😒": 284,
      "😖": 285,
      "😙": 286,
      "😜": 287,
      "😝": 288,
      "😞": 289,
      "😠": 290,
      "😡": 291,
      "😪": 292,
      "😫": 293,
      "😭": 294,
      "😲": 295,
      "😳": 296,
      "🙁": 297,
      "🙂": 298,
      "🙋": 299,
      "🙌": 300,
      "🙏": 301,
      "🚁": 302,
      "🚨": 303,
      "🤔": 304,
      "🤗": 305,
      "🤣": 306,
      "🤦": 307,
      "🤪": 308,
      "󠅌": 309,
      "##ा": 310,
      "##ध": 311,
      "##ु": 312,
      "##र": 313,
      "##म": 314,
      "##ल": 315,
      "##े": 316,
      "##ह": 317,
      "##अ": 318,
      "##्": 319,
      "##य": 320,
      "##क": 321,
      "##ष": 322,
      "##ी": 323,
      "##न": 324,
      "##फ": 325,
      "##स": 326,
      "##ि": 327,
      "##त": 328,
      "##ब": 329,
      "##ग": 330,
      "##ड": 331,
      "##ई": 332,
      "##प": 333,
      "##छ": 334,
      "##द": 335,
      "##ख": 336,
      "##श": 337,
      "##ो": 338,
      "##व": 339,
      "##भ": 340,
      "##ू": 341,
      "##ट": 342,
      "##झ": 343,
      "##उ": 344,
      "##ै": 345,
      "##ञ": 346,
      "##च": 347,
      "##इ": 348,
      "##ज": 349,
      "##ं": 350,
      "##घ": 351,
      "##आ": 352,
      "##ए": 353,
      "##ङ": 354,
      "##ण": 355,
      "##थ": 356,
      "##ौ": 357,
      "##ठ": 358,
      "##ृ": 359,
      "##ः": 360,
      "##ँ": 361,
      "##÷": 362,
      "##ओ": 363,
      "##ढ": 364,
      "##ऊ": 365,
      "##औ": 366,
      "##º": 367,
      "##≈": 368,
      "##¥": 369,
      "##ढ़": 370,
      "##़": 371,
      "##¬": 372,
      "##ʼ": 373,
      "##œ": 374,
      "##⁄": 375,
      "##¨": 376,
      "##ऽ": 377,
      "##ऋ": 378,
      "##ऐ": 379,
      "##✅": 380,
      "##ˆ": 381,
      "##¸": 382,
      "##ॉ": 383,
      "##ॅ": 384,
      "##ॆ": 385,
      "##þ": 386,
      "##ळ": 387,
      "##ड़": 388,
      "##à": 389,
      "##õ": 390,
      "##á": 391,
      "##ॐ": 392,
      "##🇩": 393,
      "##🇲": 394,
      "##🇾": 395,
      "##å": 396,
      "##🇺": 397,
      "##👉": 398,
      "##😙": 399,
      "##´": 400,
      "##ज़": 401,
      "##∙": 402,
      "##ॊ": 403,
      "##ऱ": 404,
      "##😂": 405,
      "##🤗": 406,
      "##🤔": 407,
      "##🐽": 408,
      "##😫": 409,
      "##फ़": 410,
      "##×": 411,
      "##😜": 412,
      "##🇵": 413,
      "##🇻": 414,
      "##˚": 415,
      "##è": 416,
      "##🇷": 417,
      "##🙏": 418,
      "##🙁": 419,
      "##🇧": 420,
      "##य़": 421,
      "##ı": 422,
      "##😞": 423,
      "##🙌": 424,
      "##🎊": 425,
      "##ː": 426,
      "##⋲": 427,
      "##😐": 428,
      "##̭": 429,
      "##󠅌": 430,
      "##̯": 431,
      "##∕": 432,
      "##🏼": 433,
      "##ô": 434,
      "##😇": 435,
      "##🏽": 436,
      "##҆": 437,
      "##♦": 438,
      "##ç": 439,
      "##ì": 440,
      "##ø": 441,
      "##ã": 442,
      "##️": 443,
      "##❣": 444,
      "##ᤠ": 445,
      "##ᤩ": 446,
      "##ᤴ": 447,
      "##±": 448,
      "##≤": 449,
      "##ॄ": 450,
      "##😊": 451,
      "##✖": 452,
      "##⃣": 453,
      "##æ": 454,
      "##😪": 455,
      "##¢": 456,
      "##™": 457,
      "##̇": 458,
      "##❤": 459,
      "##😡": 460,
      "##ऍ": 461,
      "##🇸": 462,
      "##🤣": 463,
      "##🇮": 464,
      "##🌎": 465,
      "##✋": 466,
      "##🔥": 467,
      "##🏻": 468,
      "##১": 469,
      "##🏾": 470,
      "##♂": 471,
      "##🇰": 472,
      "##🇹": 473,
      "##é": 474,
      "##🇳": 475,
      "##ä": 476,
      "##ل": 477,
      "##ح": 478,
      "##ك": 479,
      "##و": 480,
      "##م": 481,
      "##ة": 482,
      "##👍": 483,
      "##😝": 484,
      "##😉": 485,
      "##😏": 486,
      "##😲": 487,
      "##😖": 488,
      "##ॴ": 489,
      "##😃": 490,
      "##ᤡ": 491,
      "##ᤶ": 492,
      "##ᤒ": 493,
      "##ᤢ": 494,
      "##₹": 495,
      "##ع": 496,
      "##ر": 497,
      "##ا": 498,
      "##ق": 499,
      "##ي": 500,
      "##😠": 501,
      "##ï": 502,
      "##👏": 503,
      "##🇪": 504,
      "##ñ": 505,
      "##😭": 506,
      "##◀": 507,
      "##ª": 508,
      "##🚨": 509,
      "##➡": 510,
      "##ま": 511,
      "##さ": 512,
      "##🇴": 513,
      "##🇱": 514,
      "##🇦": 515,
      "##🇭": 516,
      "##🌡": 517,
      "##को": 518,
      "##र्": 519,
      "##्र": 520,
      "##मा": 521,
      "##न्": 522,
      "##का": 523,
      "##ले": 524,
      "##्य": 525,
      "##ने": 526,
      "##ार": 527,
      "##ला": 528,
      "प्र": 529,
      "##स्": 530,
      "##ति": 531,
      "##ाल": 532,
      "##ान": 533,
      "##ता": 534,
      "##क्": 535,
      "##िय": 536,
      "##ना": 537,
      "गर": 538,
      "##एको": 539,
      "##नि": 540,
      "वि": 541,
      "गर्": 542,
      "##ेको": 543,
      "##त्र": 544,
      "##म्": 545,
      "##लाई": 546,
      "##नु": 547,
      "##हर": 548,
      "##ाम": 549,
      "##ाग": 550,
      "हु": 551,
      "##त्": 552,
      "##िक": 553,
      "##वा": 554,
      "##रा": 555,
      "##्या": 556,
      "पनि": 557,
      "##ित": 558,
      "##ार्": 559,
      "##री": 560,
      "##दै": 561,
      "##ल्": 562,
      "स्": 563,
      "##दा": 564,
      "नि": 565,
      "##ाउ": 566,
      "##िए": 567,
      "##ाँ": 568,
      "##बा": 569,
      "##क्ष": 570,
      "##पाल": 571,
      "रा": 572,
      "##ेर": 573,
      "उन": 574,
      "##यो": 575,
      "ने": 576,
      "##हि": 577,
      "##ाइ": 578,
      "##ुन": 579,
      "##था": 580,
      "लाग": 581,
      "सं": 582,
      "##ियो": 583,
      "##ुर": 584,
      "सम": 585,
      "##ेश": 586,
      "मा": 587,
      "##ेका": 588,
      "हो": 589,
      "##ष्": 590,
      "भने": 591,
      "##िन": 592,
      "##न्छ": 593,
      "##क्र": 594,
      "त्य": 595,
      "##स्त": 596,
      "छन्": 597,
      "##िका": 598,
      "नेपाल": 599,
      "##बाट": 600,
      "##ेख": 601,
      "##पा": 602,
      "सा": 603,
      "भए": 604,
      "प्रति": 605,
      "##ेल": 606,
      "##हरू": 607,
      "##ही": 608,
      "##न्द": 609,
      "##िएको": 610,
      "भएको": 611,
      "##छि": 612,
      "##द्": 613,
      "##िया": 614,
      "##कार": 615,
      "##ीय": 616,
      "यो": 617,
      "##रि": 618,
      "##लो": 619,
      "##ष्ट": 620,
      "के": 621,
      "गर्न": 622,
      "##वि": 623,
      "निर्": 624,
      "##न्त": 625,
      "##सा": 626,
      "कार्": 627,
      "लागि": 628,
      "##ीले": 629,
      "##न्त्र": 630,
      "##र्ष": 631,
      "गरेको": 632,
      "##हरु": 633,
      "रह": 634,
      "##्न": 635,
      "कार्य": 636,
      "पु": 637,
      "सम्": 638,
      "थियो": 639,
      "यस": 640,
      "##पछि": 641,
      "बढ": 642,
      "अनु": 643,
      "का": 644,
      "##देश": 645,
      "बता": 646,
      "सर": 647,
      "गर्ने": 648,
      "##पर्": 649,
      "##ारी": 650,
      "भन्": 651,
      "##गा": 652,
      "सु": 653,
      "##िर": 654,
      "##्च": 655,
      "एक": 656,
      "##ँदै": 657,
      "##ुप": 658,
      "##स्था": 659,
      "उनले": 660,
      "आफ": 661,
      "वर्ष": 662,
      "##्रो": 663,
      "##ँग": 664,
      "##ेट": 665,
      "##ास": 666,
      "उप": 667,
      "क्": 668,
      "को": 669,
      "व्य": 670,
      "दु": 671,
      "अध": 672,
      "##म्म": 673,
      "थिए": 674,
      "##ीको": 675,
      "##धान": 676,
      "##टा": 677,
      "##ौं": 678,
      "##सार": 679,
      "##ैन": 680,
      "##िने": 681,
      "##िस": 682,
      "##ालय": 683,
      "##भा": 684,
      "हुने": 685,
      "##क्रिया": 686,
      "राज": 687,
      "तर": 688,
      "##िल्": 689,
      "##ोल": 690,
      "त्यस": 691,
      "देख": 692,
      "##ंग": 693,
      "##नी": 694,
      "##योग": 695,
      "##ष्ट्र": 696,
      "##सँग": 697,
      "मु": 698,
      "छैन": 699,
      "##स्ट": 700,
      "बि": 701,
      "##याँ": 702,
      "नै": 703,
      "सह": 704,
      "##नुपर्": 705,
      "##द्ध": 706,
      "##की": 707,
      "सरकार": 708,
      "कार": 709,
      "##ेत": 710,
      "काम": 711,
      "##ाउँ": 712,
      "स्थ": 713,
      "##रण": 714,
      "बना": 715,
      "##िम": 716,
      "##दन": 717,
      "##बार": 718,
      "##एका": 719,
      "##ेस": 720,
      "बा": 721,
      "क्ष": 722,
      "##रो": 723,
      "कु": 724,
      "##जार": 725,
      "कुन": 726,
      "पर्": 727,
      "##वस्था": 728,
      "भएका": 729,
      "रुप": 730,
      "सि": 731,
      "##स्थ": 732,
      "मह": 733,
      "अर्": 734,
      "उनी": 735,
      "तथा": 736,
      "##ूर्": 737,
      "##या": 738,
      "##ण्": 739,
      "##ानी": 740,
      "वा": 741,
      "कुनै": 742,
      "हाम": 743,
      "##्यो": 744,
      "##जना": 745,
      "##न्न": 746,
      "##क्त": 747,
      "##भि": 748,
      "बताए": 749,
      "##गर": 750,
      "स्थान": 751,
      "जना": 752,
      "##प्": 753,
      "##हिले": 754,
      "##न्द्र": 755,
      "##ुरु": 756,
      "##ीमा": 757,
      "स्व": 758,
      "##छन्": 759,
      "##कारी": 760,
      "##ेला": 761,
      "##बै": 762,
      "गरेका": 763,
      "##माण": 764,
      "##डा": 765,
      "##ीन": 766,
      "##सम्म": 767,
      "सक": 768,
      "हि": 769,
      "##घि": 770,
      "मात्र": 771,
      "##्व": 772,
      "##म्प": 773,
      "से": 774,
      "##कै": 775,
      "दि": 776,
      "##ेत्र": 777,
      "विश": 778,
      "##त्पा": 779,
      "ला": 780,
      "##ग्र": 781,
      "##ोट": 782,
      "##्ने": 783,
      "##कृ": 784,
      "रहेको": 785,
      "परि": 786,
      "##ण्ड": 787,
      "गरे": 788,
      "सबै": 789,
      "पा": 790,
      "##प्र": 791,
      "हुन्छ": 792,
      "क्षेत्र": 793,
      "##नमा": 794,
      "रो": 795,
      "पुन": 796,
      "##रु": 797,
      "##धार": 798,
      "##उने": 799,
      "दिन": 800,
      "##रह": 801,
      "##त्पादन": 802,
      "##ुट": 803,
      "##हा": 804,
      "##न्ध": 805,
      "प्रतिक्रिया": 806,
      "##न्य": 807,
      "##क्षा": 808,
      "##र्म": 809,
      "प्रा": 810,
      "##र्थ": 811,
      "##ंक": 812,
      "पर": 813,
      "##हाँ": 814,
      "##ध्य": 815,
      "##ष्ट्रिय": 816,
      "##जा": 817,
      "अन्त": 818,
      "##न्दा": 819,
      "महि": 820,
      "##धि": 821,
      "##स्ता": 822,
      "अनुसार": 823,
      "##ञ्च": 824,
      "पुग": 825,
      "समा": 826,
      "बै": 827,
      "पहि": 828,
      "जन": 829,
      "##िति": 830,
      "##देख": 831,
      "##ब्": 832,
      "बु": 833,
      "विद": 834,
      "##मु": 835,
      "##िट": 836,
      "राख": 837,
      "##हु": 838,
      "##न्त्री": 839,
      "लग": 840,
      "भन्ने": 841,
      "निर्माण": 842,
      "##पालिका": 843,
      "हजार": 844,
      "##उन": 845,
      "##भाव": 846,
      "अहिले": 847,
      "नयाँ": 848,
      "##टक": 849,
      "घर": 850,
      "##स्तो": 851,
      "##सक": 852,
      "काठ": 853,
      "##ली": 854,
      "##एर": 855,
      "जो": 856,
      "##ाउने": 857,
      "##ती": 858,
      "प्रदेश": 859,
      "पो": 860,
      "##देखि": 861,
      "केही": 862,
      "##चार": 863,
      "##क्रम": 864,
      "##सी": 865,
      "भार": 866,
      "सय": 867,
      "सो": 868,
      "स्थानीय": 869,
      "##ेक": 870,
      "सामा": 871,
      "##िन्छ": 872,
      "गरिएको": 873,
      "आफ्न": 874,
      "था": 875,
      "दुई": 876,
      "काठमा": 877,
      "##क्ति": 878,
      "##डियो": 879,
      "हुन": 880,
      "भि": 881,
      "##ूप": 882,
      "##ाउन": 883,
      "##त्व": 884,
      "समय": 885,
      "##्यु": 886,
      "गर्दै": 887,
      "##नको": 888,
      "नाम": 889,
      "पुनर्": 890,
      "काठमाड": 891,
      "##िएका": 892,
      "##वाद": 893,
      "हुन्": 894,
      "##ँदैन": 895,
      "प्रहर": 896,
      "भारत": 897,
      "##उँ": 898,
      "सक्": 899,
      "खेल": 900,
      "##भन्दा": 901,
      "कि": 902,
      "##्रम": 903,
      "##ोक": 904,
      "##ेरै": 905,
      "कम": 906,
      "गरी": 907,
      "##िल्ला": 908,
      "##नुपर्ने": 909,
      "##ोर्": 910,
      "पार्": 911,
      "कुरा": 912,
      "##िरह": 913,
      "##कास": 914,
      "गाउँ": 915,
      "##तिक": 916,
      "नेपाली": 917,
      "कारण": 918,
      "##न्ट": 919,
      "##डी": 920,
      "##बन्ध": 921,
      "##जी": 922,
      "जिल्ला": 923,
      "##्रा": 924,
      "अध्य": 925,
      "जा": 926,
      "##वार": 927,
      "पाइ": 928,
      "धेरै": 929,
      "भइ": 930,
      "##न्ड": 931,
      "##लमा": 932,
      "##मै": 933,
      "जान": 934,
      "##बी": 935,
      "शि": 936,
      "गर्नु": 937,
      "कान": 938,
      "##दैन": 939,
      "##कु": 940,
      "##ोर": 941,
      "##त्त": 942,
      "##िङ": 943,
      "विकास": 944,
      "##जन": 945,
      "##ैले": 946,
      "व्यवस्था": 947,
      "लाख": 948,
      "##पुर": 949,
      "गु": 950,
      "सुरु": 951,
      "##उत्पादन": 952,
      "पुनर्उत्पादन": 953,
      "गरि": 954,
      "##निक": 955,
      "##टी": 956,
      "आयो": 957,
      "अव": 958,
      "खो": 959,
      "अधिका": 960,
      "रूप": 961,
      "##मान": 962,
      "रुपमा": 963,
      "गत": 964,
      "##िल": 965,
      "आफ्नो": 966,
      "पहिलो": 967,
      "##रमा": 968,
      "अघि": 969,
      "सरकारले": 970,
      "##ाय": 971,
      "कानुन": 972,
      "##डक": 973,
      "##मुख": 974,
      "प्रश": 975,
      "नगर": 976,
      "अन्तर्": 977,
      "मान": 978,
      "##स्तै": 979,
      "##गत": 980,
      "बज": 981,
      "##मन्त्री": 982,
      "विष": 983,
      "##ूल": 984,
      "पूर्": 985,
      "##ुवा": 986,
      "##्ञ": 987,
      "या": 988,
      "##टमा": 989,
      "सञ्च": 990,
      "##सम": 991,
      "निय": 992,
      "##वन": 993,
      "##ङ्": 994,
      "कार्यालय": 995,
      "##र्फ": 996,
      "##नुपर्छ": 997,
      "अवस्था": 998,
      "##हित": 999,
      "राम": 1000,
      "##ेक्": 1001,
      "##म्ब": 1002,
      "##ताको": 1003,
      "लि": 1004,
      "सडक": 1005,
      "##चि": 1006,
      "##ग्": 1007,
      "देश": 1008,
      "##ेन": 1009,
      "विषय": 1010,
      "##ुक": 1011,
      "##ाली": 1012,
      "##ँदा": 1013,
      "केन्द्र": 1014,
      "##ाह": 1015,
      "##र्च": 1016,
      "रुपै": 1017,
      "##कृति": 1018,
      "कार्यक्रम": 1019,
      "##स्या": 1020,
      "##दान": 1021,
      "##फल": 1022,
      "रूपमा": 1023,
      "##रहेको": 1024,
      "##न्स": 1025,
      "बढी": 1026,
      "##हरूले": 1027,
      "आएको": 1028,
      "समिति": 1029,
      "##ामा": 1030,
      "प्रक्रिया": 1031,
      "##रको": 1032,
      "गरेर": 1033,
      "##भाग": 1034,
      "##राष्ट्रिय": 1035,
      "ल्या": 1036,
      "तय": 1037,
      "रुपैयाँ": 1038,
      "श्र": 1039,
      "नभ": 1040,
      "उनको": 1041,
      "प्रधान": 1042,
      "मि": 1043,
      "##इन": 1044,
      "समस्या": 1045,
      "बस": 1046,
      "संघ": 1047,
      "##पी": 1048,
      "त्यो": 1049,
      "##्यान": 1050,
      "##ष्ठ": 1051,
      "हा": 1052,
      "एउ": 1053,
      "##त्य": 1054,
      "विश्व": 1055,
      "##यत": 1056,
      "##ौँ": 1057,
      "उपल": 1058,
      "अन्तर्राष्ट्रिय": 1059,
      "आव": 1060,
      "##्छ": 1061,
      "##थि": 1062,
      "##काल": 1063,
      "महिला": 1064,
      "समेत": 1065,
      "##यन": 1066,
      "##पूर्": 1067,
      "दो": 1068,
      "##शत": 1069,
      "##र्ता": 1070,
      "उपलब्": 1071,
      "##शा": 1072,
      "##रिक": 1073,
      "हामी": 1074,
      "##पि": 1075,
      "पार": 1076,
      "##च्च": 1077,
      "##मेल": 1078,
      "भयो": 1079,
      "प्रमुख": 1080,
      "काठमाडौं": 1081,
      "सर्": 1082,
      "##श्य": 1083,
      "लगा": 1084,
      "भा": 1085,
      "##नेछ": 1086,
      "खु": 1087,
      "घट": 1088,
      "##न्ति": 1089,
      "स्वी": 1090,
      "जि": 1091,
      "खा": 1092,
      "साथ": 1093,
      "##राज": 1094,
      "सद": 1095,
      "भू": 1096,
      "सञ्चाल": 1097,
      "##ृत": 1098,
      "प्रतिशत": 1099,
      "मन्त्र": 1100,
      "##हरूको": 1101,
      "##वास": 1102,
      "तीन": 1103,
      "##वे": 1104,
      "ना": 1105,
      "##र्य": 1106,
      "##प्त": 1107,
      "##बाही": 1108,
      "कस": 1109,
      "उपलब्ध": 1110,
      "##स्य": 1111,
      "##र्क": 1112,
      "अस": 1113,
      "##वसा": 1114,
      "##ोटो": 1115,
      "##ीहरु": 1116,
      "दिए": 1117,
      "राजनी": 1118,
      "अब": 1119,
      "##ुल": 1120,
      "अध्यक्ष": 1121,
      "##मेर": 1122,
      "ठू": 1123,
      "##्यालय": 1124,
      "अभ": 1125,
      "##अघि": 1126,
      "आफू": 1127,
      "बैंक": 1128,
      "साइ": 1129,
      "##खा": 1130,
      "कारबाही": 1131,
      "प्रहरी": 1132,
      "##णा": 1133,
      "निर्वा": 1134,
      "आयोजना": 1135,
      "तह": 1136,
      "##र्श": 1137,
      "##सद": 1138,
      "स्वा": 1139,
      "जानकारी": 1140,
      "##ाँच": 1141,
      "##रोड": 1142,
      "##धा": 1143,
      "##डि": 1144,
      "कम्प": 1145,
      "##जिक": 1146,
      "दल": 1147,
      "##िता": 1148,
      "##साब": 1149,
      "##ज्ञ": 1150,
      "आइ": 1151,
      "करोड": 1152,
      "##ेव": 1153,
      "पछि": 1154,
      "##करण": 1155,
      "योजना": 1156,
      "गर्दा": 1157,
      "सप": 1158,
      "##धन": 1159,
      "माग": 1160,
      "##हार": 1161,
      "आर्थ": 1162,
      "##ाना": 1163,
      "हे": 1164,
      "आर्थिक": 1165,
      "अन्य": 1166,
      "##पत": 1167,
      "अस्": 1168,
      "एउटा": 1169,
      "व्या": 1170,
      "प्रयोग": 1171,
      "छा": 1172,
      "छो": 1173,
      "##लेको": 1174,
      "##ोर्ट": 1175,
      "##क्षण": 1176,
      "राष्ट्र": 1177,
      "बेला": 1178,
      "लेख": 1179,
      "भिडियो": 1180,
      "हिसाब": 1181,
      "अप": 1182,
      "सार्": 1183,
      "मन": 1184,
      "##चना": 1185,
      "##इट": 1186,
      "बाल": 1187,
      "भन्दै": 1188,
      "बो": 1189,
      "उक्त": 1190,
      "कृ": 1191,
      "मो": 1192,
      "##ठक": 1193,
      "फोटो": 1194,
      "सम्बन्ध": 1195,
      "##भित्र": 1196,
      "##दी": 1197,
      "##ृद्ध": 1198,
      "##दुर": 1199,
      "##श्यक": 1200,
      "राष्ट्रिय": 1201,
      "टोल": 1202,
      "निर्वाच": 1203,
      "बे": 1204,
      "##टो": 1205,
      "कर्म": 1206,
      "आधार": 1207,
      "होइन": 1208,
      "##भिन्न": 1209,
      "##इएको": 1210,
      "रहेका": 1211,
      "महिना": 1212,
      "##्ट": 1213,
      "जी": 1214,
      "बने": 1215,
      "##ैं": 1216,
      "उद": 1217,
      "हिसाबले": 1218,
      "मे": 1219,
      "चि": 1220,
      "निर्ण": 1221,
      "##पन": 1222,
      "ती": 1223,
      "सुर": 1224,
      "गोल": 1225,
      "##ंग्र": 1226,
      "नेता": 1227,
      "मुख": 1228,
      "बाँ": 1229,
      "##सकेको": 1230,
      "सेवा": 1231,
      "भनेर": 1232,
      "##वसाय": 1233,
      "गरिए": 1234,
      "##त्म": 1235,
      "दिने": 1236,
      "बुझ": 1237,
      "बजेट": 1238,
      "##त्ति": 1239,
      "बिना": 1240,
      "##समेत": 1241,
      "विभिन्न": 1242,
      "बढाइ": 1243,
      "##धिक": 1244,
      "बजार": 1245,
      "स्वीकृति": 1246,
      "##पति": 1247,
      "##सि": 1248,
      "बस्": 1249,
      "##ेद": 1250,
      "बैठक": 1251,
      "##तन्त्र": 1252,
      "##र्ग": 1253,
      "क्षेत्रमा": 1254,
      "मन्त्रालय": 1255,
      "##काश": 1256,
      "आवश्यक": 1257,
      "नगरपालिका": 1258,
      "सदस्य": 1259,
      "जोड": 1260,
      "खे": 1261,
      "##हादुर": 1262,
      "##श्च": 1263,
      "##ुक्त": 1264,
      "निर्णय": 1265,
      "##स्थित": 1266,
      "पोस्ट": 1267,
      "गा": 1268,
      "##कम": 1269,
      "##बीच": 1270,
      "पाइँदैन": 1271,
      "##दि": 1272,
      "प्रव": 1273,
      "##टन": 1274,
      "क्रम": 1275,
      "सहयोग": 1276,
      "##जु": 1277,
      "टेक्": 1278,
      "##बारे": 1279,
      "व्यक्ति": 1280,
      "##विधान": 1281,
      "मूल": 1282,
      "मात्रै": 1283,
      "दा": 1284,
      "गाउँपालिका": 1285,
      "##सो": 1286,
      "चौ": 1287,
      "लगानी": 1288,
      "##िज": 1289,
      "पटक": 1290,
      "शा": 1291,
      "##सले": 1292,
      "##वै": 1293,
      "संविधान": 1294,
      "पर्य": 1295,
      "भनि": 1296,
      "थप": 1297,
      "हाल": 1298,
      "सामाग्र": 1299,
      "मुल": 1300,
      "खेला": 1301,
      "##सँगै": 1302,
      "यु": 1303,
      "उल्": 1304,
      "##वज": 1305,
      "##ेपछि": 1306,
      "##अनु": 1307,
      "##ीत": 1308,
      "गरिरह": 1309,
      "प्रधानमन्त्री": 1310,
      "##स्थ्य": 1311,
      "पढ": 1312,
      "##पूर्ण": 1313,
      "##चारी": 1314,
      "विद्यालय": 1315,
      "##बहादुर": 1316,
      "साम": 1317,
      "##क्षक": 1318,
      "##हरुले": 1319,
      "##ेष": 1320,
      "खर्च": 1321,
      "उत्पादन": 1322,
      "सामाग्रीहरु": 1323,
      "अडियो": 1324,
      "##लि": 1325,
      "##ड्": 1326,
      "कपि": 1327,
      "##राइट": 1328,
      "बढाइनेछ": 1329,
      "नाग": 1330,
      "गरिएमा": 1331,
      "कपिराइट": 1332,
      "आएका": 1333,
      "आज": 1334,
      "फिल्": 1335,
      "साइटमा": 1336,
      "निका": 1337,
      "##्योग": 1338,
      "##ूह": 1339,
      "##लेख": 1340,
      "##र्त": 1341,
      "भिडियोका": 1342,
      "टेक्स्ट": 1343,
      "##यर": 1344,
      "दिएको": 1345,
      "##कल": 1346,
      "कति": 1347,
      "हाम्रो": 1348,
      "##इन्": 1349,
      "##ोष": 1350,
      "##िएर": 1351,
      "##सहित": 1352,
      "सार्वज": 1353,
      "जनाएको": 1354,
      "##वी": 1355,
      "पार्टी": 1356,
      "कर्मचारी": 1357,
      "##ञ्": 1358,
      "##ारा": 1359,
      "यस्तो": 1360,
      "##तृ": 1361,
      "##ख्या": 1362,
      "##स्रो": 1363,
      "जित": 1364,
      "##ध्ये": 1365,
      "हरु": 1366,
      "अर्को": 1367,
      "##पत्र": 1368,
      "सार्वजनिक": 1369,
      "चु": 1370,
      "विक": 1371,
      "सपोर्ट": 1372,
      "विद्या": 1373,
      "खोज": 1374,
      "पद": 1375,
      "##ामी": 1376,
      "ठूलो": 1377,
      "##पु": 1378,
      "##प्रति": 1379,
      "##ंग्रेस": 1380,
      "##त्ता": 1381,
      "##क्स": 1382,
      "पत्र": 1383,
      "गर्नुस": 1384,
      "सम्झ": 1385,
      "ईमेल": 1386,
      "शु": 1387,
      "गरिदैन": 1388,
      "##न्व": 1389,
      "रु": 1390,
      "फिल्म": 1391,
      "##सक्": 1392,
      "देखि": 1393,
      "निक": 1394,
      "घटना": 1395,
      "सम्प": 1396,
      "स्वास्थ्य": 1397,
      "लागी": 1398,
      "##पताल": 1399,
      "पू": 1400,
      "वै": 1401,
      "##चिव": 1402,
      "क्र": 1403,
      "भेट": 1404,
      "अस्पताल": 1405,
      "संर": 1406,
      "उत्": 1407,
      "भइरहेको": 1408,
      "##वादी": 1409,
      "करि": 1410,
      "मुख्य": 1411,
      "##थ्यो": 1412,
      "वटा": 1413,
      "नागरिक": 1414,
      "अमेर": 1415,
      "गो": 1416,
      "हेर्": 1417,
      "राम्रो": 1418,
      "##कि": 1419,
      "यहाँ": 1420,
      "प्रभाव": 1421,
      "##माले": 1422,
      "कांग्रेस": 1423,
      "##अनुसार": 1424,
      "##न्ज": 1425,
      "मुलुक": 1426,
      "##ेष्ठ": 1427,
      "##भर": 1428,
      "राजनीतिक": 1429,
      "##ेरो": 1430,
      "गते": 1431,
      "##ेन्द्र": 1432,
      "चल": 1433,
      "रकम": 1434,
      "##स्तु": 1435,
      "##तमा": 1436,
      "##नुभ": 1437,
      "डा": 1438,
      "##हान": 1439,
      "पोख": 1440,
      "दोस्रो": 1441,
      "##दाय": 1442,
      "व्यवसाय": 1443,
      "हुँदै": 1444,
      "निर्देश": 1445,
      "समाज": 1446,
      "##ेन्ट": 1447,
      "##ेड": 1448,
      "##र्स": 1449,
      "स्था": 1450,
      "##पर": 1451,
      "समूह": 1452,
      "ठाउँ": 1453,
      "##गरी": 1454,
      "विदेश": 1455,
      "बनाउन": 1456,
      "##्री": 1457,
      "किन": 1458,
      "ले": 1459,
      "गर्छ": 1460,
      "हामीले": 1461,
      "सां": 1462,
      "शिक्षा": 1463,
      "उद्योग": 1464,
      "##न्छन्": 1465,
      "पक्ष": 1466,
      "##टर": 1467,
      "अधिकारी": 1468,
      "अनि": 1469,
      "##मि": 1470,
      "पुर": 1471,
      "##ाइन": 1472,
      "चा": 1473,
      "नी": 1474,
      "अर्थ": 1475,
      "चार": 1476,
      "विद्यार्थ": 1477,
      "यी": 1478,
      "नहु": 1479,
      "भएकाले": 1480,
      "विशेष": 1481,
      "अझ": 1482,
      "लोक": 1483,
      "##ेज": 1484,
      "##ृद्धि": 1485,
      "##र्ण": 1486,
      "मृत": 1487,
      "संस्था": 1488,
      "सन्": 1489,
      "नेपालको": 1490,
      "##लको": 1491,
      "##तर्फ": 1492,
      "सञ्चालन": 1493,
      "##सु": 1494,
      "उठ": 1495,
      "प्रकाश": 1496,
      "##हरुको": 1497,
      "लक्ष": 1498,
      "उल्लेख": 1499,
      "##ीर": 1500,
      "##ोज": 1501,
      "##मति": 1502,
      "मैले": 1503,
      "##सको": 1504,
      "पर्ने": 1505,
      "काठमाडौँ": 1506,
      "##माथि": 1507,
      "सू": 1508,
      "##एपछि": 1509,
      "##लब": 1510,
      "##गायत": 1511,
      "पूर्व": 1512,
      "अगा": 1513,
      "##स्क": 1514,
      "##नाइ": 1515,
      "आउने": 1516,
      "कृष": 1517,
      "##यात": 1518,
      "बन्": 1519,
      "##शी": 1520,
      "नेपालमा": 1521,
      "सहभाग": 1522,
      "##ाएको": 1523,
      "नेतृ": 1524,
      "प्रतियोग": 1525,
      "चीन": 1526,
      "छल": 1527,
      "##दर्श": 1528,
      "##ाल्": 1529,
      "भएपछि": 1530,
      "##ग्गा": 1531,
      "##नले": 1532,
      "राज्य": 1533,
      "##उँछन्": 1534,
      "##दो": 1535,
      "पाँच": 1536,
      "श्रेष्ठ": 1537,
      "बनाउने": 1538,
      "नेतृत्व": 1539,
      "विषयमा": 1540,
      "##हरूलाई": 1541,
      "त्यही": 1542,
      "##ीका": 1543,
      "##त्या": 1544,
      "##िसक": 1545,
      "##त्मक": 1546,
      "करिब": 1547,
      "पठ": 1548,
      "##तामा": 1549,
      "देखिन्छ": 1550,
      "ति": 1551,
      "##सं": 1552,
      "नीति": 1553,
      "##बल": 1554,
      "स्ट": 1555,
      "लागेको": 1556,
      "भएर": 1557,
      "##रोध": 1558,
      "क्रममा": 1559,
      "तत्": 1560,
      "##थे": 1561,
      "परिवार": 1562,
      "भन्दा": 1563,
      "##नका": 1564,
      "जग्गा": 1565,
      "##रुद्ध": 1566,
      "बी": 1567,
      "अर्ब": 1568,
      "पानी": 1569,
      "##उँदै": 1570,
      "व्याप": 1571,
      "रोज": 1572,
      "##िप": 1573,
      "##तिर": 1574,
      "##ल्ने": 1575,
      "##म्भ": 1576,
      "चाह": 1577,
      "हुँदा": 1578,
      "मत": 1579,
      "किस": 1580,
      "##वरण": 1581,
      "##मिक": 1582,
      "परेको": 1583,
      "न्या": 1584,
      "अद": 1585,
      "बाहि": 1586,
      "महा": 1587,
      "अनुस": 1588,
      "पै": 1589,
      "वडा": 1590,
      "##्दै": 1591,
      "प्रहरीले": 1592,
      "##ञ्ज": 1593,
      "हुनु": 1594,
      "##वारी": 1595,
      "अगाडि": 1596,
      "##हो": 1597,
      "मेरो": 1598,
      "हर": 1599,
      "सुरक्षा": 1600,
      "##नामा": 1601,
      "##मार": 1602,
      "गएको": 1603,
      "सक्ने": 1604,
      "मृत्यु": 1605,
      "##सर": 1606,
      "अन": 1607,
      "आयोग": 1608,
      "##ार्थ": 1609,
      "परी": 1610,
      "उपचार": 1611,
      "##्रि": 1612,
      "##न्धान": 1613,
      "जाने": 1614,
      "##वेदन": 1615,
      "अवस्थामा": 1616,
      "गर्नुपर्ने": 1617,
      "आग": 1618,
      "मार्": 1619,
      "उपा": 1620,
      "यसको": 1621,
      "सी": 1622,
      "बन्द": 1623,
      "दुवै": 1624,
      "तयार": 1625,
      "कम्पनी": 1626,
      "##ल्लो": 1627,
      "##ुदाय": 1628,
      "##ेम": 1629,
      "भारतीय": 1630,
      "अनुसन्धान": 1631,
      "खेलमा": 1632,
      "यही": 1633,
      "##िटर": 1634,
      "घोष": 1635,
      "लाम": 1636,
      "सामाजिक": 1637,
      "##समा": 1638,
      "जे": 1639,
      "सफल": 1640,
      "मौ": 1641,
      "##घा": 1642,
      "##पना": 1643,
      "तयारी": 1644,
      "खेलाडी": 1645,
      "##व्य": 1646,
      "आरो": 1647,
      "यात्र": 1648,
      "ट्र": 1649,
      "बल": 1650,
      "थिएन": 1651,
      "छौं": 1652,
      "सरकारी": 1653,
      "तत्काल": 1654,
      "##ंश": 1655,
      "रहे": 1656,
      "गठ": 1657,
      "छलफल": 1658,
      "##ल्या": 1659,
      "##मध्ये": 1660,
      "जनता": 1661,
      "उहाँ": 1662,
      "पी": 1663,
      "##क्ता": 1664,
      "नग": 1665,
      "##नाव": 1666,
      "सक्छ": 1667,
      "अध्ययन": 1668,
      "त्यहाँ": 1669,
      "निकै": 1670,
      "एस": 1671,
      "साल": 1672,
      "##मित": 1673,
      "##विधि": 1674,
      "थाले": 1675,
      "फर": 1676,
      "##फा": 1677,
      "छैनन्": 1678,
      "##षा": 1679,
      "##ीलाई": 1680,
      "अफ": 1681,
      "युवा": 1682,
      "##चा": 1683,
      "##रले": 1684,
      "हुनेछ": 1685,
      "##ङ्ग": 1686,
      "मन्त्री": 1687,
      "##जे": 1688,
      "सकिन्छ": 1689,
      "##सभा": 1690,
      "##िन्": 1691,
      "मानिस": 1692,
      "फर्क": 1693,
      "संघीय": 1694,
      "सांसद": 1695,
      "##मन": 1696,
      "मूल्य": 1697,
      "संस्": 1698,
      "संग": 1699,
      "##भव": 1700,
      "##लगायत": 1701,
      "##न्दोल": 1702,
      "##द्दा": 1703,
      "मध": 1704,
      "##कमा": 1705,
      "विभाग": 1706,
      "जारी": 1707,
      "##ोधन": 1708,
      "उनलाई": 1709,
      "अदाल": 1710,
      "बाटो": 1711,
      "थापा": 1712,
      "चला": 1713,
      "प्राप्त": 1714,
      "##तले": 1715,
      "ता": 1716,
      "##ियन": 1717,
      "परिव": 1718,
      "त्यसैले": 1719,
      "सरकारको": 1720,
      "दुर्": 1721,
      "कार्या": 1722,
      "निर्वाचन": 1723,
      "कर": 1724,
      "मलाई": 1725,
      "मुद्दा": 1726,
      "##कको": 1727,
      "क्या": 1728,
      "छुट": 1729,
      "##ालिका": 1730,
      "भाग": 1731,
      "##ल्न": 1732,
      "##दार": 1733,
      "##्वास": 1734,
      "सचिव": 1735,
      "##निधि": 1736,
      "##रहेका": 1737,
      "हुँदैन": 1738,
      "जुन": 1739,
      "उच्च": 1740,
      "##बु": 1741,
      "भनाइ": 1742,
      "ब्या": 1743,
      "##ेकी": 1744,
      "##ौड": 1745,
      "प्रतियोगिता": 1746,
      "##ंह": 1747,
      "कार्यान्व": 1748,
      "सम्झौ": 1749,
      "##छा": 1750,
      "बार": 1751,
      "##युक्त": 1752,
      "दश": 1753,
      "गीत": 1754,
      "पक्र": 1755,
      "आन्दोल": 1756,
      "गरिने": 1757,
      "सभा": 1758,
      "प्रत्य": 1759,
      "मै": 1760,
      "##तको": 1761,
      "पर्यटक": 1762,
      "लिएर": 1763,
      "सबैभन्दा": 1764,
      "##पटक": 1765,
      "##ेमा": 1766,
      "##पनि": 1767,
      "##पो": 1768,
      "चाल": 1769,
      "##झा": 1770,
      "कृषि": 1771,
      "बाहिर": 1772,
      "##ट्ट": 1773,
      "संख्या": 1774,
      "संसद": 1775,
      "यसले": 1776,
      "##ानो": 1777,
      "घोषणा": 1778,
      "भनेको": 1779,
      "अभिय": 1780,
      "अधिकार": 1781,
      "समयमा": 1782,
      "##्दा": 1783,
      "यस्तै": 1784,
      "##कर्ता": 1785,
      "##ल्ला": 1786,
      "डि": 1787,
      "नियन्त्र": 1788,
      "##बर": 1789,
      "##धारण": 1790,
      "##ेय": 1791,
      "सुन": 1792,
      "##लग": 1793,
      "पुगेको": 1794,
      "##धी": 1795,
      "अन्ति": 1796,
      "अझै": 1797,
      "पक्राउ": 1798,
      "नभएको": 1799,
      "बनेको": 1800,
      "सम्पन्न": 1801,
      "विज्ञ": 1802,
      "प्रशास": 1803,
      "स्प": 1804,
      "उनका": 1805,
      "व्यवस्थापन": 1806,
      "##वाह": 1807,
      "##ग्रह": 1808,
      "##स्ताव": 1809,
      "गर्छन्": 1810,
      "##म्बर": 1811,
      "अन्तिम": 1812,
      "गुरु": 1813,
      "प्रस्ताव": 1814,
      "##के": 1815,
      "##साद": 1816,
      "##ष्ण": 1817,
      "##तार": 1818,
      "स्थानमा": 1819,
      "औं": 1820,
      "आधारमा": 1821,
      "रे": 1822,
      "##लेर": 1823,
      "त्यसको": 1824,
      "विमान": 1825,
      "बिक": 1826,
      "प्रदर्श": 1827,
      "अभि": 1828,
      "ग्र": 1829,
      "स्रो": 1830,
      "दिएका": 1831,
      "##ोरी": 1832,
      "पाउने": 1833,
      "टिम": 1834,
      "पूरा": 1835,
      "लामो": 1836,
      "भ्रम": 1837,
      "वर्षको": 1838,
      "##र्न": 1839,
      "महान": 1840,
      "जीवन": 1841,
      "##पाई": 1842,
      "फेर": 1843,
      "देखिएको": 1844,
      "छु": 1845,
      "##ल्क": 1846,
      "पराज": 1847,
      "फुट": 1848,
      "निकाय": 1849,
      "परिवर्त": 1850,
      "माओ": 1851,
      "##लामा": 1852,
      "##स्तार": 1853,
      "त्यस्तै": 1854,
      "बिर": 1855,
      "##िरहेको": 1856,
      "##ेउ": 1857,
      "##पक्ष": 1858,
      "पुल": 1859,
      "##च्छ": 1860,
      "##मी": 1861,
      "बताउँछन्": 1862,
      "##कले": 1863,
      "##्यू": 1864,
      "##हरुलाई": 1865,
      "##र्ड": 1866,
      "##ानको": 1867,
      "कसरी": 1868,
      "अमेरिका": 1869,
      "फो": 1870,
      "##धिका": 1871,
      "लगायत": 1872,
      "बाँकी": 1873,
      "रन": 1874,
      "##िनिय": 1875,
      "विध": 1876,
      "चरण": 1877,
      "डे": 1878,
      "प्रकाशित": 1879,
      "बढेको": 1880,
      "##राई": 1881,
      "नियन्त्रण": 1882,
      "##ंगा": 1883,
      "##लाइ": 1884,
      "##कर्ष": 1885,
      "भूम": 1886,
      "जस्तो": 1887,
      "उत्त": 1888,
      "नेपालले": 1889,
      "त्यसपछि": 1890,
      "##से": 1891,
      "पछिल्लो": 1892,
      "##लले": 1893,
      "##चित्र": 1894,
      "आरोप": 1895,
      "प्रश्न": 1896,
      "खेत": 1897,
      "गति": 1898,
      "उद्": 1899,
      "लिन": 1900,
      "##र्फत": 1901,
      "##यी": 1902,
      "रोजग": 1903,
      "अर": 1904,
      "##िकेट": 1905,
      "पैसा": 1906,
      "##कम्प": 1907,
      "राष्ट्रपति": 1908,
      "हरेक": 1909,
      "सहमति": 1910,
      "सम्झौता": 1911,
      "मिने": 1912,
      "##हास": 1913,
      "यसै": 1914,
      "सोच": 1915,
      "ज्ञ": 1916,
      "##विद": 1917,
      "##नुभयो": 1918,
      "निर": 1919,
      "सहज": 1920,
      "दू": 1921,
      "सन्द": 1922,
      "तपाई": 1923,
      "##कृत": 1924,
      "थाहा": 1925,
      "##जि": 1926,
      "##ालो": 1927,
      "##टै": 1928,
      "यसअघि": 1929,
      "##वेश": 1930,
      "##ेलले": 1931,
      "खाने": 1932,
      "##ुरो": 1933,
      "प्रय": 1934,
      "तथ": 1935,
      "##्नु": 1936,
      "त्यति": 1937,
      "##ैनिक": 1938,
      "थि": 1939,
      "##र्मा": 1940,
      "फि": 1941,
      "सवारी": 1942,
      "वार्": 1943,
      "##र्या": 1944,
      "बस्ने": 1945,
      "दाबी": 1946,
      "##ालले": 1947,
      "व्यापार": 1948,
      "टु": 1949,
      "सम्भाव": 1950,
      "##्ना": 1951,
      "##क्क": 1952,
      "जन्": 1953,
      "##ंगल": 1954,
      "##उनु": 1955,
      "निजी": 1956,
      "साथै": 1957,
      "##शु": 1958,
      "##रत": 1959,
      "##दर": 1960,
      "शक्ति": 1961,
      "सर्व": 1962,
      "##हरूमा": 1963,
      "बताएका": 1964,
      "##ष्टि": 1965,
      "पत्रकार": 1966,
      "आँ": 1967,
      "थाल": 1968,
      "वर्षीय": 1969,
      "यस्ता": 1970,
      "ध्यान": 1971,
      "क्लब": 1972,
      "विद्यु": 1973,
      "##भो": 1974,
      "आफ्नै": 1975,
      "##तिहास": 1976,
      "एमाले": 1977,
      "##वल": 1978,
      "होला": 1979,
      "##ट्": 1980,
      "वन": 1981,
      "##डित": 1982,
      "अभाव": 1983,
      "लक्ष्य": 1984,
      "कला": 1985,
      "भ्रमण": 1986,
      "लु": 1987,
      "तेस": 1988,
      "बिहान": 1989,
      "ओल": 1990,
      "##स्व": 1991,
      "न्याय": 1992,
      "फरक": 1993,
      "##ुरुष": 1994,
      "दक्ष": 1995,
      "भूमिका": 1996,
      "दर्ता": 1997,
      "हुन्छन्": 1998,
      "##भू": 1999,
      "योग": 2000,
      "वृद्धि": 2001,
      "चलचित्र": 2002,
      "छन": 2003,
      "##ाउँदै": 2004,
      "तेस्रो": 2005,
      "अधिक": 2006,
      "परेका": 2007,
      "##त्री": 2008,
      "नद": 2009,
      "सहभागी": 2010,
      "कम्पन": 2011,
      "भर्": 2012,
      "रि": 2013,
      "मान्छ": 2014,
      "यति": 2015,
      "छोरा": 2016,
      "हात": 2017,
      "##ृह": 2018,
      "##र्जन": 2019,
      "विद्यार्थी": 2020,
      "##ल्प": 2021,
      "लिग": 2022,
      "##घट": 2023,
      "संरचना": 2024,
      "##रिद": 2025,
      "##प्रसाद": 2026,
      "गौ": 2027,
      "पुरुष": 2028,
      "##हेक": 2029,
      "##स्ती": 2030,
      "दर": 2031,
      "अल": 2032,
      "च्या": 2033,
      "##उँछ": 2034,
      "समुदाय": 2035,
      "दी": 2036,
      "##तो": 2037,
      "भूकम्प": 2038,
      "सुवि": 2039,
      "##तरण": 2040,
      "##ढी": 2041,
      "म्या": 2042,
      "ठाउँमा": 2043,
      "##म्मा": 2044,
      "##यु": 2045,
      "पौड": 2046,
      "स्त": 2047,
      "##निर्": 2048,
      "उनीहरू": 2049,
      "##नाले": 2050,
      "चुनाव": 2051,
      "नसक्": 2052,
      "चर्च": 2053,
      "भन्छन्": 2054,
      "गण": 2055,
      "साँ": 2056,
      "राजनीति": 2057,
      "जु": 2058,
      "पहिले": 2059,
      "##मात्र": 2060,
      "गरेपछि": 2061,
      "कार्यक्रममा": 2062,
      "##पय": 2063,
      "प्रतिवेदन": 2064,
      "##न्ने": 2065,
      "विकेट": 2066,
      "सन्त": 2067,
      "अंक": 2068,
      "##न्तर": 2069,
      "जिम्म": 2070,
      "सकेको": 2071,
      "##्ले": 2072,
      "##मार्ग": 2073,
      "बिक्री": 2074,
      "कतिपय": 2075,
      "विस्तार": 2076,
      "त्यसै": 2077,
      "सोम": 2078,
      "ताल": 2079,
      "##एन": 2080,
      "टोली": 2081,
      "व्यव": 2082,
      "विवाद": 2083,
      "##क्रमण": 2084,
      "सामान्य": 2085,
      "अभियान": 2086,
      "सुधार": 2087,
      "श्री": 2088,
      "आमा": 2089,
      "##र्जा": 2090,
      "स्थापना": 2091,
      "केन्द्रीय": 2092,
      "##जक": 2093,
      "पार्ट": 2094,
      "##्यांक": 2095,
      "त्रि": 2096,
      "खरिद": 2097,
      "गरिरहेको": 2098,
      "##ध्यक्ष": 2099,
      "##सम्": 2100,
      "##तावरण": 2101,
      "नाममा": 2102,
      "##डान": 2103,
      "##श्चिम": 2104,
      "प्रयास": 2105,
      "परिवर्तन": 2106,
      "##ते": 2107,
      "सीमा": 2108,
      "आफ्ना": 2109,
      "विधेय": 2110,
      "##र्ने": 2111,
      "##बेला": 2112,
      "राजधान": 2113,
      "हेर": 2114,
      "##हन": 2115,
      "बनाएको": 2116,
      "##ध्यम": 2117,
      "वातावरण": 2118,
      "कै": 2119,
      "##ताका": 2120,
      "##ाइएको": 2121,
      "बालब": 2122,
      "##ल्ट": 2123,
      "सुना": 2124,
      "गरिरहेका": 2125,
      "##राब": 2126,
      "##स्पर्": 2127,
      "सात": 2128,
      "प्रच": 2129,
      "प्रशि": 2130,
      "दृ": 2131,
      "लिएको": 2132,
      "याद": 2133,
      "##हुँ": 2134,
      "##मन्त्र": 2135,
      "तिन": 2136,
      "##पानी": 2137,
      "उपभो": 2138,
      "मधेस": 2139,
      "फेरि": 2140,
      "गर्नुपर्छ": 2141,
      "##विरुद्ध": 2142,
      "##ढा": 2143,
      "किलो": 2144,
      "##शाख": 2145,
      "एव": 2146,
      "##ताले": 2147,
      "रोग": 2148,
      "शै": 2149,
      "##बि": 2150,
      "रोक": 2151,
      "##ोर्ड": 2152,
      "कार्यान्वयन": 2153,
      "##िण": 2154,
      "##सन": 2155,
      "किसान": 2156,
      "नजिक": 2157,
      "प्रण": 2158,
      "प्रतिस्पर्": 2159,
      "चाहि": 2160,
      "दुर्घट": 2161,
      "##कुमार": 2162,
      "##िकी": 2163,
      "क्रिकेट": 2164,
      "पराजित": 2165,
      "अधिकांश": 2166,
      "तस्": 2167,
      "##लाको": 2168,
      "पूर्ण": 2169,
      "##ागत": 2170,
      "प्रस्तु": 2171,
      "महास": 2172,
      "##स्थल": 2173,
      "ढु": 2174,
      "##शील": 2175,
      "काय": 2176,
      "मानव": 2177,
      "सहर": 2178,
      "##न्टर": 2179,
      "##ंका": 2180,
      "नहुने": 2181,
      "पूर्वा": 2182,
      "हरा": 2183,
      "घरमा": 2184,
      "##तम": 2185,
      "पोखरा": 2186,
      "सूचना": 2187,
      "प्रवेश": 2188,
      "संरक्षण": 2189,
      "कमज": 2190,
      "विश्वास": 2191,
      "सिंह": 2192,
      "भनिन्": 2193,
      "आश": 2194,
      "बालबालिका": 2195,
      "नम्बर": 2196,
      "##ोड": 2197,
      "बाध्य": 2198,
      "थालेको": 2199,
      "क्षम": 2200,
      "##कपा": 2201,
      "##पक": 2202,
      "##चित": 2203,
      "अरु": 2204,
      "वितरण": 2205,
      "##क्षित": 2206,
      "भाषा": 2207,
      "##दू": 2208,
      "संश": 2209,
      "जति": 2210,
      "क्षति": 2211,
      "##कर्म": 2212,
      "##त्त्व": 2213,
      "भइसकेको": 2214,
      "भवन": 2215,
      "निर्देशन": 2216,
      "लाग्छ": 2217,
      "मना": 2218,
      "गुरुङ": 2219,
      "विरोध": 2220,
      "पुर्य": 2221,
      "सुविधा": 2222,
      "माओवादी": 2223,
      "##साइ": 2224,
      "पर्छ": 2225,
      "##सका": 2226,
      "सम्म": 2227,
      "जन्म": 2228,
      "कप": 2229,
      "छाड": 2230,
      "खान": 2231,
      "आइत": 2232,
      "कथा": 2233,
      "सम्भावना": 2234,
      "##सिक": 2235,
      "सकिने": 2236,
      "संकल": 2237,
      "##डो": 2238,
      "भट्ट": 2239,
      "वर्षमा": 2240,
      "भण्ड": 2241,
      "देव": 2242,
      "यसरी": 2243,
      "##सकेका": 2244,
      "##लु": 2245,
      "गर्यो": 2246,
      "भित्र": 2247,
      "शुक्र": 2248,
      "अरू": 2249,
      "सकेन": 2250,
      "##बद्ध": 2251,
      "विगत": 2252,
      "भएन": 2253,
      "यसलाई": 2254,
      "##लेका": 2255,
      "दक्षिण": 2256,
      "यसमा": 2257,
      "नेकपा": 2258,
      "##दिन": 2259,
      "गठन": 2260,
      "स्रोत": 2261,
      "शिक्षक": 2262,
      "पर्यटन": 2263,
      "सम्मेल": 2264,
      "##जित": 2265,
      "अवसर": 2266,
      "##रीको": 2267,
      "##हल": 2268,
      "जल": 2269,
      "आग्रह": 2270,
      "##ायण": 2271,
      "अति": 2272,
      "मान्छे": 2273,
      "##ाउनु": 2274,
      "ऐन": 2275,
      "आउ": 2276,
      "##ारायण": 2277,
      "##न्दिर": 2278,
      "##खु": 2279,
      "पाएको": 2280,
      "जम": 2281,
      "लिने": 2282,
      "दर्श": 2283,
      "##षण": 2284,
      "##ँड": 2285,
      "घु": 2286,
      "##बिर": 2287,
      "प्रदान": 2288,
      "प्रावि": 2289,
      "गरा": 2290,
      "##ारमा": 2291,
      "वीर": 2292,
      "##िरहेका": 2293,
      "##उँदा": 2294,
      "पूर्वाधार": 2295,
      "बजारमा": 2296,
      "होट": 2297,
      "पि": 2298,
      "तोक": 2299,
      "##द्य": 2300,
      "समितिले": 2301,
      "विन": 2302,
      "तुल": 2303,
      "##विक": 2304,
      "##कृष्ट": 2305,
      "बुध": 2306,
      "##िकि": 2307,
      "उमेर": 2308,
      "जिल्लामा": 2309,
      "ठूला": 2310,
      "आफैं": 2311,
      "आगामी": 2312,
      "##देव": 2313,
      "दैनिक": 2314,
      "खास": 2315,
      "अहिलेसम्म": 2316,
      "गुना": 2317,
      "विदेशी": 2318,
      "यादव": 2319,
      "जाँ": 2320,
      "मोट": 2321,
      "दिइ": 2322,
      "##चाल": 2323,
      "भु": 2324,
      "##गम": 2325,
      "प्राथ": 2326,
      "आए": 2327,
      "##ेप": 2328,
      "घाइ": 2329,
      "गरिसक": 2330,
      "लाग्ने": 2331,
      "##नाको": 2332,
      "अधिकृत": 2333,
      "##बाटै": 2334,
      "##धु": 2335,
      "एवं": 2336,
      "##जो": 2337,
      "##ैर": 2338,
      "हत्या": 2339,
      "बहु": 2340,
      "गाडी": 2341,
      "##पद": 2342,
      "##वर": 2343,
      "धन": 2344,
      "##रीले": 2345,
      "आइतबार": 2346,
      "देउ": 2347,
      "थिइन्": 2348,
      "##धिकरण": 2349,
      "ओली": 2350,
      "प्रदर्शन": 2351,
      "##िल्लो": 2352,
      "##कृतिक": 2353,
      "अग्र": 2354,
      "प्राथमिक": 2355,
      "उम्म": 2356,
      "प्राविधिक": 2357,
      "##िकित्": 2358,
      "बनाइ": 2359,
      "रहने": 2360,
      "सोमबार": 2361,
      "##ीकरण": 2362,
      "पुग्ने": 2363,
      "हट": 2364,
      "##ायक": 2365,
      "मन्दिर": 2366,
      "##काम": 2367,
      "खुला": 2368,
      "प्राधिकरण": 2369,
      "##ल्य": 2370,
      "मैदान": 2371,
      "कले": 2372,
      "##ठा": 2373,
      "श्रम": 2374,
      "प्रतिनिधि": 2375,
      "औष": 2376,
      "##्रै": 2377,
      "##िएपछि": 2378,
      "##र्ट": 2379,
      "बीच": 2380,
      "साता": 2381,
      "##षद्": 2382,
      "प्रेम": 2383,
      "भो": 2384,
      "##िनी": 2385,
      "बनाएर": 2386,
      "अमेरिकी": 2387,
      "बजे": 2388,
      "महानगर": 2389,
      "संक": 2390,
      "##मो": 2391,
      "फाइ": 2392,
      "##एस": 2393,
      "##ेवारी": 2394,
      "##तै": 2395,
      "कहिले": 2396,
      "नेपालका": 2397,
      "घण्": 2398,
      "फै": 2399,
      "चिकित्": 2400,
      "तस्बिर": 2401,
      "##राम": 2402,
      "राख्ने": 2403,
      "शनि": 2404,
      "मंगल": 2405,
      "##्वा": 2406,
      "प्रविधि": 2407,
      "##तिय": 2408,
      "कक्षा": 2409,
      "राई": 2410,
      "विज": 2411,
      "पुस्त": 2412,
      "ऋण": 2413,
      "महत्त्व": 2414,
      "##चार्": 2415,
      "##ब्द": 2416,
      "पीडित": 2417,
      "उत्कृष्ट": 2418,
      "उनीहरूले": 2419,
      "मिल्": 2420,
      "जिम्मेवारी": 2421,
      "कर्ण": 2422,
      "बताइन्": 2423,
      "उत्तर": 2424,
      "जब": 2425,
      "##वाल": 2426,
      "##स्थिति": 2427,
      "##मार्फत": 2428,
      "##ानीको": 2429,
      "भौ": 2430,
      "यात्रा": 2431,
      "सुझा": 2432,
      "टि": 2433,
      "##बन्धी": 2434,
      "शर्मा": 2435,
      "कायम": 2436,
      "चै": 2437,
      "गुनासो": 2438,
      "लो": 2439,
      "अन्त्य": 2440,
      "##मत": 2441,
      "विश्वक": 2442,
      "नसक": 2443,
      "कुल": 2444,
      "##क्का": 2445,
      "बैंकले": 2446,
      "बन्न": 2447,
      "##गो": 2448,
      "तहमा": 2449,
      "शुक्रबार": 2450,
      "##अन्त": 2451,
      "मध्य": 2452,
      "हार": 2453,
      "आउन": 2454,
      "##दल": 2455,
      "कोर": 2456,
      "##कोट": 2457,
      "घाइते": 2458,
      "गृह": 2459,
      "कारो": 2460,
      "याता": 2461,
      "नसकेको": 2462,
      "पदार्थ": 2463,
      "इतिहास": 2464,
      "मोटर": 2465,
      "##िला": 2466,
      "##रीमा": 2467,
      "बुधबार": 2468,
      "कमा": 2469,
      "##ची": 2470,
      "##श्व": 2471,
      "##स्त्र": 2472,
      "##सद्": 2473,
      "समाचार": 2474,
      "पुगेका": 2475,
      "रहेछ": 2476,
      "गुण": 2477,
      "##कुल": 2478,
      "टे": 2479,
      "अघ": 2480,
      "##नाथ": 2481,
      "नप": 2482,
      "टा": 2483,
      "निरन्तर": 2484,
      "उम्मेद": 2485,
      "##वान": 2486,
      "न्यू": 2487,
      "##च्चा": 2488,
      "प्रस्तुत": 2489,
      "आन्दोलन": 2490,
      "मन्त्रालयले": 2491,
      "प्रमाण": 2492,
      "क्षेत्रको": 2493,
      "##ौती": 2494,
      "आफूलाई": 2495,
      "सभ": 2496,
      "##ष्टा": 2497,
      "बैठकमा": 2498,
      "आत्म": 2499,
      "चे": 2500,
      "##ामु": 2501,
      "हुनुपर्छ": 2502,
      "झा": 2503,
      "सिद्ध": 2504,
      "प्रत्येक": 2505,
      "जनाको": 2506,
      "चुन": 2507,
      "जोख": 2508,
      "भी": 2509,
      "अपरा": 2510,
      "##पको": 2511,
      "संगठ": 2512,
      "निम्": 2513,
      "##सलाई": 2514,
      "त्यसमा": 2515,
      "रोजगारी": 2516,
      "##ेलु": 2517,
      "अर्था": 2518,
      "शान्ति": 2519,
      "##ंसा": 2520,
      "##चान": 2521,
      "हिमा": 2522,
      "##पित": 2523,
      "##देशिक": 2524,
      "गुमा": 2525,
      "यातायात": 2526,
      "शी": 2527,
      "बह": 2528,
      "अर्का": 2529,
      "आठ": 2530,
      "यसका": 2531,
      "##क्न": 2532,
      "आफूले": 2533,
      "राखेर": 2534,
      "##अन्तर्": 2535,
      "जीव": 2536,
      "छनोट": 2537,
      "##रूप": 2538,
      "सम्बन्धित": 2539,
      "##कार्य": 2540,
      "गम्भ": 2541,
      "##न्तिपुर": 2542,
      "माध्यम": 2543,
      "##कारा": 2544,
      "संकलन": 2545,
      "आन्त": 2546,
      "बुद्ध": 2547,
      "संशोधन": 2548,
      "धार": 2549,
      "##ाउँछ": 2550,
      "जोखिम": 2551,
      "कम्पनीले": 2552,
      "खेती": 2553,
      "धर्म": 2554,
      "##हुन्छ": 2555,
      "डिज": 2556,
      "दाह": 2557,
      "##सित": 2558,
      "##अन्तर्गत": 2559,
      "कलेज": 2560,
      "##बन्द": 2561,
      "समाधान": 2562,
      "##ेले": 2563,
      "एन": 2564,
      "आन्तरिक": 2565,
      "##होर": 2566,
      "##धीश": 2567,
      "सिर्": 2568,
      "टेल": 2569,
      "##त्न": 2570,
      "कोइ": 2571,
      "##ख्": 2572,
      "##ल्ल": 2573,
      "बराब": 2574,
      "##हरुमा": 2575,
      "माथि": 2576,
      "लागू": 2577,
      "प्रतिस्पर्धा": 2578,
      "##लाग": 2579,
      "तामा": 2580,
      "##ेसन": 2581,
      "संयो": 2582,
      "विधेयक": 2583,
      "प्रभावित": 2584,
      "##वाफ": 2585,
      "##त्रा": 2586,
      "##ानमा": 2587,
      "राखिएको": 2588,
      "सर्वो": 2589,
      "##ंस": 2590,
      "##लव": 2591,
      "भारतको": 2592,
      "डु": 2593,
      "##र्का": 2594,
      "बिही": 2595,
      "महत्व": 2596,
      "शनिबार": 2597,
      "बारेमा": 2598,
      "बच": 2599,
      "##्यास": 2600,
      "सुझाव": 2601,
      "##निर्माण": 2602,
      "##त्तिकै": 2603,
      "तपाईं": 2604,
      "##वटा": 2605,
      "##बाहेक": 2606,
      "अवधि": 2607,
      "शास": 2608,
      "उसले": 2609,
      "अनुभव": 2610,
      "खड्": 2611,
      "ओलीले": 2612,
      "##प्प": 2613,
      "##विद्यालय": 2614,
      "हस्ता": 2615,
      "लै": 2616,
      "##सम्बन्धी": 2617,
      "सोही": 2618,
      "नहुँदा": 2619,
      "भ्र": 2620,
      "##सिया": 2621,
      "परीक्षा": 2622,
      "आकर्ष": 2623,
      "त्यसलाई": 2624,
      "##द्वार": 2625,
      "##तियार": 2626,
      "दुख": 2627,
      "फुटबल": 2628,
      "##याधीश": 2629,
      "तत्कालीन": 2630,
      "##जस्तो": 2631,
      "ग्रा": 2632,
      "विचार": 2633,
      "##्युनि": 2634,
      "##न्या": 2635,
      "व्यवसायी": 2636,
      "संसद्": 2637,
      "रंग": 2638,
      "राख्न": 2639,
      "आम": 2640,
      "जरु": 2641,
      "##श्चित": 2642,
      "प्रहार": 2643,
      "जरुरी": 2644,
      "कारोबार": 2645,
      "##लग्न": 2646,
      "कमजोर": 2647,
      "जसले": 2648,
      "##कारात्मक": 2649,
      "शीर्ष": 2650,
      "प्रचण्ड": 2651,
      "##गन्ज": 2652,
      "विरा": 2653,
      "##सँगको": 2654,
      "नाका": 2655,
      "इन्टर": 2656,
      "राजा": 2657,
      "विद्युत्": 2658,
      "गम्भीर": 2659,
      "चौध": 2660,
      "##क्टर": 2661,
      "##सीले": 2662,
      "गि": 2663,
      "जवाफ": 2664,
      "जस्ता": 2665,
      "दाय": 2666,
      "##फार": 2667,
      "##ेदार": 2668,
      "##ालको": 2669,
      "##चाइ": 2670,
      "पश्चिम": 2671,
      "##जस्ता": 2672,
      "चित": 2673,
      "एकै": 2674,
      "संस्कृति": 2675,
      "बिरामी": 2676,
      "##लाल": 2677,
      "एका": 2678,
      "##कन": 2679,
      "मंगलबार": 2680,
      "कोही": 2681,
      "निर्देशक": 2682,
      "##िनियाँ": 2683,
      "विश्वविद्यालय": 2684,
      "सिर्जना": 2685,
      "पाए": 2686,
      "कठ": 2687,
      "गराउने": 2688,
      "नव": 2689,
      "##पमा": 2690,
      "स्वतन्त्र": 2691,
      "सिका": 2692,
      "जेठ": 2693,
      "गाउँमा": 2694,
      "जनताको": 2695,
      "##र्भ": 2696,
      "##ल्दै": 2697,
      "चिनियाँ": 2698,
      "##देश्य": 2699,
      "ब्र": 2700,
      "तथ्यांक": 2701,
      "वैशाख": 2702,
      "घण्टा": 2703,
      "उपभोक्ता": 2704,
      "##ध्या": 2705,
      "सक्दैन": 2706,
      "छोरी": 2707,
      "क्षमता": 2708,
      "मनो": 2709,
      "##्यार": 2710,
      "संलग्न": 2711,
      "##लाले": 2712,
      "गराउन": 2713,
      "परम्प": 2714,
      "##कर": 2715,
      "मिनेटमा": 2716,
      "मिला": 2717,
      "मिटर": 2718,
      "कलाकार": 2719,
      "श्रेष्ठले": 2720,
      "टोलीले": 2721,
      "सम्ब": 2722,
      "##ाउँदा": 2723,
      "हुनुपर्ने": 2724,
      "पाएका": 2725,
      "आयात": 2726,
      "##स्कार": 2727,
      "##पुग": 2728,
      "च्याम्प": 2729,
      "आदेश": 2730,
      "असर": 2731,
      "देशको": 2732,
      "वस्तु": 2733,
      "छान": 2734,
      "समन्व": 2735,
      "खेलाड": 2736,
      "बन्ने": 2737,
      "##टको": 2738,
      "##ोत्": 2739,
      "हिँड": 2740,
      "बिहीबार": 2741,
      "सामग्र": 2742,
      "अनुमान": 2743,
      "अनुदान": 2744,
      "विजे": 2745,
      "देखा": 2746,
      "##लर": 2747,
      "फु": 2748,
      "##नुभएको": 2749,
      "चरणमा": 2750,
      "उनीहरूको": 2751,
      "##एफ": 2752,
      "आदि": 2753,
      "कसै": 2754,
      "सिफार": 2755,
      "सिम": 2756,
      "भर": 2757,
      "सञ्ज": 2758,
      "खण्ड": 2759,
      "##ँजी": 2760,
      "सञ्चालनमा": 2761,
      "एउटै": 2762,
      "कोइरा": 2763,
      "दिइएको": 2764,
      "बास": 2765,
      "##रुप": 2766,
      "पे": 2767,
      "माघ": 2768,
      "##ेसम्म": 2769,
      "##ित्व": 2770,
      "ट्रा": 2771,
      "स्पष्ट": 2772,
      "समन्वय": 2773,
      "त्यस्तो": 2774,
      "फाइन": 2775,
      "थिएँ": 2776,
      "गरिन्छ": 2777,
      "आय": 2778,
      "कसैले": 2779,
      "बंग": 2780,
      "##हरण": 2781,
      "##न्तरण": 2782,
      "उपाधि": 2783,
      "कम्युनि": 2784,
      "क्षेत्रका": 2785,
      "संयुक्त": 2786,
      "किलोम": 2787,
      "##ुले": 2788,
      "फाग": 2789,
      "##क्रिय": 2790,
      "कृष्ण": 2791,
      "हामीलाई": 2792,
      "राजधानी": 2793,
      "जमिन": 2794,
      "उदा": 2795,
      "सूर्": 2796,
      "##णी": 2797,
      "##पोस्ट": 2798,
      "सत्ता": 2799,
      "परीक्षण": 2800,
      "देउवा": 2801,
      "कट": 2802,
      "राखेको": 2803,
      "भट्टराई": 2804,
      "कार्यालयले": 2805,
      "कोष": 2806,
      "शरी": 2807,
      "आवश्यकता": 2808,
      "पहिचान": 2809,
      "कवि": 2810,
      "सम्मान": 2811,
      "देशमा": 2812,
      "शब्द": 2813,
      "सहकारी": 2814,
      "परिण": 2815,
      "##लित": 2816,
      "सर्वोच्च": 2817,
      "विवाह": 2818,
      "##हत": 2819,
      "##हित्य": 2820,
      "जनप्रति": 2821,
      "पेट": 2822,
      "ज्यान": 2823,
      "जस्तै": 2824,
      "##डमा": 2825,
      "समान": 2826,
      "रेल": 2827,
      "##चार्य": 2828,
      "बोक": 2829,
      "अस्पतालमा": 2830,
      "पहा": 2831,
      "गएका": 2832,
      "भन्न": 2833,
      "प्रदेशसभा": 2834,
      "नियमित": 2835,
      "##पर्ने": 2836,
      "निस्क": 2837,
      "लाइ": 2838,
      "एक्": 2839,
      "तरकारी": 2840,
      "विप": 2841,
      "प्रशासन": 2842,
      "मान्य": 2843,
      "फे": 2844,
      "ल्याउन": 2845,
      "वित्त": 2846,
      "लगायतका": 2847,
      "आम्": 2848,
      "##क्ने": 2849,
      "नियम": 2850,
      "भै": 2851,
      "बोर्ड": 2852,
      "##स्तान": 2853,
      "##न्थ्यो": 2854,
      "##दानी": 2855,
      "##रीय": 2856,
      "सदर": 2857,
      "दिनमा": 2858,
      "बनेका": 2859,
      "##्ला": 2860,
      "##ृत्ति": 2861,
      "सालमा": 2862,
      "##बाइ": 2863,
      "##लका": 2864,
      "युव": 2865,
      "सुनि": 2866,
      "##कुद": 2867,
      "उद्देश्य": 2868,
      "पुरा": 2869,
      "कालो": 2870,
      "साहित्य": 2871,
      "सरकारलाई": 2872,
      "सोध": 2873,
      "पास": 2874,
      "##ियाली": 2875,
      "थालेका": 2876,
      "व्यवहार": 2877,
      "भे": 2878,
      "सानो": 2879,
      "##ङको": 2880,
      "##परेको": 2881,
      "##ियर": 2882,
      "की": 2883,
      "प्रशिक्षक": 2884,
      "सभापति": 2885,
      "सिफारिस": 2886,
      "##साथ": 2887,
      "##पूर्ति": 2888,
      "खेलकुद": 2889,
      "##लै": 2890,
      "समर्थ": 2891,
      "बर्": 2892,
      "औषधि": 2893,
      "##बिन": 2894,
      "आर्म": 2895,
      "पस": 2896,
      "##ौन": 2897,
      "सच": 2898,
      "चुनौती": 2899,
      "गुणस्त": 2900,
      "मोटरसाइ": 2901,
      "##्याम": 2902,
      "फागुन": 2903,
      "##भिजन": 2904,
      "##टनगर": 2905,
      "भद": 2906,
      "पाल": 2907,
      "उनीहरु": 2908,
      "आई": 2909,
      "असार": 2910,
      "कम्": 2911,
      "प्रणाली": 2912,
      "नब": 2913,
      "भाव": 2914,
      "##वासी": 2915,
      "भत्": 2916,
      "काट": 2917,
      "राति": 2918,
      "थापाले": 2919,
      "पाइन्छ": 2920,
      "वर्षअघि": 2921,
      "वर्ग": 2922,
      "दबा": 2923,
      "##परि": 2924,
      "सश": 2925,
      "भौतिक": 2926,
      "सम्बोधन": 2927,
      "##त्तै": 2928,
      "कस्तो": 2929,
      "##हीन": 2930,
      "गैर": 2931,
      "पृ": 2932,
      "पक्षमा": 2933,
      "मेड": 2934,
      "मिड": 2935,
      "तर्फ": 2936,
      "##तालाई": 2937,
      "##आई": 2938,
      "छिन्": 2939,
      "तिम": 2940,
      "##थो": 2941,
      "बसेको": 2942,
      "सम्भव": 2943,
      "स्थिति": 2944,
      "सिट": 2945,
      "निर्माणको": 2946,
      "##न्तु": 2947,
      "पाकि": 2948,
      "##जिल": 2949,
      "साना": 2950,
      "साह": 2951,
      "छिट": 2952,
      "##ष्य": 2953,
      "कामदार": 2954,
      "संयोजक": 2955,
      "दुर्घटना": 2956,
      "प्या": 2957,
      "स्या": 2958,
      "सहभागिता": 2959,
      "समितिको": 2960,
      "खड्का": 2961,
      "भ्रष्टा": 2962,
      "##सीको": 2963,
      "##नेर": 2964,
      "इन्": 2965,
      "सङ्": 2966,
      "बेच": 2967,
      "##दछ": 2968,
      "##भु": 2969,
      "##चारिक": 2970,
      "भर्ना": 2971,
      "##ियम": 2972,
      "##जन्य": 2973,
      "##तिमा": 2974,
      "चर्चा": 2975,
      "बलियो": 2976,
      "##कलाई": 2977,
      "कप्त": 2978,
      "##सव": 2979,
      "गरेकी": 2980,
      "##ंघ": 2981,
      "जनप्रतिनिधि": 2982,
      "फिर्ता": 2983,
      "द्व": 2984,
      "निगम": 2985,
      "विराटनगर": 2986,
      "##ासो": 2987,
      "##सम्मको": 2988,
      "##ल्यान्ड": 2989,
      "##मुकाम": 2990,
      "##हे": 2991,
      "चिकित्सक": 2992,
      "इन्टरने": 2993,
      "भई": 2994,
      "नभए": 2995,
      "##सस": 2996,
      "नसक्ने": 2997,
      "##ियाको": 2998,
      "##राष्ट्र": 2999,
      "जाग": 3000,
      "पुँजी": 3001,
      "व्यक्त": 3002,
      "ठा": 3003,
      "काममा": 3004,
      "साथी": 3005,
      "गए": 3006,
      "अधिकारीले": 3007,
      "##ालि": 3008,
      "जनक": 3009,
      "संस्थ": 3010,
      "उम्मेदवार": 3011,
      "##्टै": 3012,
      "##न्त्रिक": 3013,
      "ल्याउने": 3014,
      "विनियो": 3015,
      "सदरमुकाम": 3016,
      "विवरण": 3017,
      "वर्षदेखि": 3018,
      "##सरी": 3019,
      "ल्याएको": 3020,
      "जानु": 3021,
      "समावेश": 3022,
      "##षिक": 3023,
      "भनेका": 3024,
      "रू": 3025,
      "राजस्व": 3026,
      "पहिलोपोस्ट": 3027,
      "खुसी": 3028,
      "लिएका": 3029,
      "##फाइन": 3030,
      "##हरा": 3031,
      "पाउ": 3032,
      "बला": 3033,
      "##न्दु": 3034,
      "लगाउने": 3035,
      "काग": 3036,
      "वरि": 3037,
      "हुन्थ्यो": 3038,
      "##गमन": 3039,
      "लिए": 3040,
      "भनी": 3041,
      "##संग": 3042,
      "शाह": 3043,
      "अत्य": 3044,
      "##िकल": 3045,
      "अम": 3046,
      "##त्कार": 3047,
      "विमानस्थल": 3048,
      "##लिक": 3049,
      "आक्रमण": 3050,
      "बढाउन": 3051,
      "प्रधानमन्त्र": 3052,
      "अन्तर": 3053,
      "केपी": 3054,
      "सर्वसा": 3055,
      "##वधान": 3056,
      "सेयर": 3057,
      "##र्ज": 3058,
      "बैठकले": 3059,
      "##लत": 3060,
      "##तीमा": 3061,
      "संसदीय": 3062,
      "शे": 3063,
      "##शक्ति": 3064,
      "किलोमिटर": 3065,
      "जम्मा": 3066,
      "पर्व": 3067,
      "##आर": 3068,
      "प्रतिष्ठ": 3069,
      "पोखर": 3070,
      "अपे": 3071,
      "होटल": 3072,
      "##जुरी": 3073,
      "भोल": 3074,
      "हेर्न": 3075,
      "परियो": 3076,
      "इन्ज": 3077,
      "मर्म": 3078,
      "मार": 3079,
      "तामाङ": 3080,
      "सडकमा": 3081,
      "हास": 3082,
      "अदालत": 3083,
      "पदा": 3084,
      "समृद्धि": 3085,
      "लाग्": 3086,
      "झन्": 3087,
      "भ्रष्टाचार": 3088,
      "##शुल्क": 3089,
      "पुग्न": 3090,
      "##डामा": 3091,
      "मज": 3092,
      "##द्वारा": 3093,
      "भनिएको": 3094,
      "जाँदा": 3095,
      "##छिन्": 3096,
      "##त्यका": 3097,
      "कार्यालयमा": 3098,
      "##ेक्का": 3099,
      "धा": 3100,
      "कहाँ": 3101,
      "माइ": 3102,
      "गएर": 3103,
      "##डे": 3104,
      "वित्तीय": 3105,
      "जुट": 3106,
      "##न्ता": 3107,
      "प्रवक्ता": 3108,
      "##्म": 3109,
      "वैदेशिक": 3110,
      "शुल्क": 3111,
      "चढ": 3112,
      "सामुदाय": 3113,
      "बच्चा": 3114,
      "साधन": 3115,
      "##टिङ": 3116,
      "चासो": 3117,
      "विकल्प": 3118,
      "##नन्": 3119,
      "प्रतियोगितामा": 3120,
      "परियोजना": 3121,
      "अनुगमन": 3122,
      "पुनर्निर्माण": 3123,
      "अपराध": 3124,
      "ओभ": 3125,
      "सध": 3126,
      "ग्राह": 3127,
      "पौडेल": 3128,
      "समितिका": 3129,
      "म्यान": 3130,
      "##खर": 3131,
      "त्यसका": 3132,
      "शाखा": 3133,
      "गरिएका": 3134,
      "अधि": 3135,
      "आप": 3136,
      "दिव": 3137,
      "पार्टीको": 3138,
      "सामुदायिक": 3139,
      "आलो": 3140,
      "सक्रिय": 3141,
      "##ामुख": 3142,
      "निर्वाचित": 3143,
      "स्क": 3144,
      "दस": 3145,
      "##्रे": 3146,
      "पुरानो": 3147,
      "##खो": 3148,
      "##िपरि": 3149,
      "हेर्दा": 3150,
      "ढि": 3151,
      "साँझ": 3152,
      "विद्यालयमा": 3153,
      "बनाए": 3154,
      "नारायण": 3155,
      "ब्रा": 3156,
      "रमा": 3157,
      "##टि": 3158,
      "है": 3159,
      "सर्वसाधारण": 3160,
      "##लादेश": 3161,
      "उपयोग": 3162,
      "प्रभावकारी": 3163,
      "उपत्यका": 3164,
      "संगीत": 3165,
      "तहको": 3166,
      "##ैँ": 3167,
      "मन्त्रिपरि": 3168,
      "मोटरसाइकल": 3169,
      "सामान": 3170,
      "आशा": 3171,
      "##नै": 3172,
      "##क्षर": 3173,
      "##ोका": 3174,
      "पारित": 3175,
      "मेस": 3176,
      "##यता": 3177,
      "बम": 3178,
      "पर्या": 3179,
      "लाग्यो": 3180,
      "गर्नेछ": 3181,
      "दबाब": 3182,
      "##लाम": 3183,
      "चैत": 3184,
      "वास्त": 3185,
      "##कालीन": 3186,
      "मुख्यमन्त्री": 3187,
      "##ल्यै": 3188,
      "निर्माणका": 3189,
      "अघिल्लो": 3190,
      "नाटक": 3191,
      "##्ल": 3192,
      "डी": 3193,
      "##लाका": 3194,
      "##तान्त्रिक": 3195,
      "सामग्री": 3196,
      "युरो": 3197,
      "##रका": 3198,
      "##भी": 3199,
      "##ेश्व": 3200,
      "व्यावसाय": 3201,
      "प्रत्यक्ष": 3202,
      "तालिम": 3203,
      "प्रजा": 3204,
      "यात्रु": 3205,
      "पुरस्कार": 3206,
      "कानुनी": 3207,
      "नपा": 3208,
      "दिएर": 3209,
      "हाम्रा": 3210,
      "रासस": 3211,
      "पारेको": 3212,
      "पारि": 3213,
      "उडान": 3214,
      "##ढे": 3215,
      "##यौं": 3216,
      "सम्पत्ति": 3217,
      "भवि": 3218,
      "सार": 3219,
      "किसिम": 3220,
      "कर्णाली": 3221,
      "अहिलेको": 3222,
      "भाइ": 3223,
      "दलित": 3224,
      "##गमा": 3225,
      "आयोगले": 3226,
      "पहिरो": 3227,
      "##दे": 3228,
      "##धिस": 3229,
      "##ल्ड": 3230,
      "##म्बा": 3231,
      "अनुमति": 3232,
      "अर्थात्": 3233,
      "झन्ड": 3234,
      "##ोध": 3235,
      "हालसम्म": 3236,
      "घा": 3237,
      "उसको": 3238,
      "भन्सार": 3239,
      "खाना": 3240,
      "बाट": 3241,
      "आम्दानी": 3242,
      "##स्ट्र": 3243,
      "गलत": 3244,
      "##कर्मी": 3245,
      "जोग": 3246,
      "पदाधिका": 3247,
      "च्याम्पियन": 3248,
      "बढ्दै": 3249,
      "पाउन": 3250,
      "योगदान": 3251,
      "सहित": 3252,
      "थुप": 3253,
      "झन्डै": 3254,
      "##दु": 3255,
      "छिम": 3256,
      "##न्द्व": 3257,
      "नभएका": 3258,
      "माल": 3259,
      "##पूर्व": 3260,
      "सँग": 3261,
      "##सरमा": 3262,
      "घरेलु": 3263,
      "जिल्लाका": 3264,
      "##बन्दी": 3265,
      "उहाँले": 3266,
      "आँखा": 3267,
      "सकि": 3268,
      "लागेका": 3269,
      "प्रहरीको": 3270,
      "बनाएका": 3271,
      "लोकतन्त्र": 3272,
      "सपना": 3273,
      "##शन": 3274,
      "##क्य": 3275,
      "कारणले": 3276,
      "बसेर": 3277,
      "नौ": 3278,
      "##क्षेप": 3279,
      "पाठ": 3280,
      "तराई": 3281,
      "नर": 3282,
      "##पान": 3283,
      "पुनः": 3284,
      "##पदण्ड": 3285,
      "एयर": 3286,
      "##पुरमा": 3287,
      "दृष्टि": 3288,
      "##ज्ञान": 3289,
      "विनियोजन": 3290,
      "बस्ती": 3291,
      "उपम": 3292,
      "अर्थतन्त्र": 3293,
      "##लन": 3294,
      "ज्ञान": 3295,
      "हुनसक्": 3296,
      "बर्ष": 3297,
      "सञ्चार": 3298,
      "मापदण्ड": 3299,
      "वर्षा": 3300,
      "##रीक्षक": 3301,
      "नियन्त्रणमा": 3302,
      "##न्थ": 3303,
      "जहाँ": 3304,
      "फेस": 3305,
      "##ंसिर": 3306,
      "##भरि": 3307,
      "भन्छ": 3308,
      "ठेक्का": 3309,
      "सेना": 3310,
      "##धानिक": 3311,
      "हिंसा": 3312,
      "भविष्य": 3313,
      "##िच": 3314,
      "##ियामा": 3315,
      "रण": 3316,
      "##्छन्": 3317,
      "##नेको": 3318,
      "खट": 3319,
      "महत्त्वपूर्ण": 3320,
      "##पचारिक": 3321,
      "##ोन": 3322,
      "नदी": 3323,
      "आउँछ": 3324,
      "##वाज": 3325,
      "डाक्टर": 3326,
      "सत्य": 3327,
      "कार्यकर्ता": 3328,
      "उनीहरुले": 3329,
      "##न्दर": 3330,
      "प्रावधान": 3331,
      "अन्तर्गत": 3332,
      "अभिभाव": 3333,
      "धारणा": 3334,
      "##िमा": 3335,
      "##वार्ड": 3336,
      "भक्त": 3337,
      "निष्": 3338,
      "संसार": 3339,
      "चाँ": 3340,
      "नगरपालिकाले": 3341,
      "राउ": 3342,
      "##ौल": 3343,
      "नागरिकता": 3344,
      "##जस्तै": 3345,
      "##मेन्ट": 3346,
      "दशक": 3347,
      "कतै": 3348,
      "पछा": 3349,
      "सक्छन्": 3350,
      "नआ": 3351,
      "एकता": 3352,
      "कप्तान": 3353,
      "##एम": 3354,
      "##िताको": 3355,
      "रोप": 3356,
      "##द्द": 3357,
      "पहल": 3358,
      "सकारात्मक": 3359,
      "बोला": 3360,
      "सुरक्षित": 3361,
      "##ियाले": 3362,
      "जनाए": 3363,
      "बग": 3364,
      "ललित": 3365,
      "शुरु": 3366,
      "टुंग": 3367,
      "लाभ": 3368,
      "विजेता": 3369,
      "क्याम्प": 3370,
      "##हाल": 3371,
      "गल्": 3372,
      "##हाज": 3373,
      "महिनामा": 3374,
      "वे": 3375,
      "मोबाइ": 3376,
      "धर": 3377,
      "##िटी": 3378,
      "##क्षिक": 3379,
      "समेट": 3380,
      "न्य": 3381,
      "यू": 3382,
      "लगाएको": 3383,
      "##फी": 3384,
      "##फिक": 3385,
      "ब्य": 3386,
      "यता": 3387,
      "निर्वाचनमा": 3388,
      "प्रदेशको": 3389,
      "बिमा": 3390,
      "प्रकार": 3391,
      "आधा": 3392,
      "अभिन": 3393,
      "साढे": 3394,
      "केसी": 3395,
      "आएर": 3396,
      "देशका": 3397,
      "बढ्ने": 3398,
      "##ेली": 3399,
      "##शास": 3400,
      "बुट": 3401,
      "विकासका": 3402,
      "##्मी": 3403,
      "उदाहरण": 3404,
      "खानेपानी": 3405,
      "##तीय": 3406,
      "किम": 3407,
      "मोड": 3408,
      "बंगलादेश": 3409,
      "विरुद्ध": 3410,
      "उजुरी": 3411,
      "सौ": 3412,
      "पौडेलले": 3413,
      "राजमार्ग": 3414,
      "##िल्ली": 3415,
      "गरियो": 3416,
      "##ुपयोग": 3417,
      "अने": 3418,
      "कार्यकारी": 3419,
      "जिम्मा": 3420,
      "स्थापित": 3421,
      "चित्र": 3422,
      "बद": 3423,
      "##्याल": 3424,
      "व्यावसायिक": 3425,
      "ठेक": 3426,
      "नं": 3427,
      "प्रतिनि": 3428,
      "खेल्ने": 3429,
      "##ारम्भ": 3430,
      "##चालन": 3431,
      "##ल्लाह": 3432,
      "आचार्य": 3433,
      "##पथ": 3434,
      "अपेक्षा": 3435,
      "हेर्ने": 3436,
      "हिमाल": 3437,
      "पाण्ड": 3438,
      "मिल": 3439,
      "##ेरा": 3440,
      "प्रतिबद्ध": 3441,
      "शैक्षिक": 3442,
      "निर्धारण": 3443,
      "##िमिर": 3444,
      "##जिलो": 3445,
      "मले": 3446,
      "अख्": 3447,
      "भण्डार": 3448,
      "बन्दै": 3449,
      "यौन": 3450,
      "गौतम": 3451,
      "मान्यता": 3452,
      "पुस्तक": 3453,
      "##बुक": 3454,
      "पढाइ": 3455,
      "गोर": 3456,
      "##व्र": 3457,
      "न्यून": 3458,
      "बस्न": 3459,
      "स्थानीयले": 3460,
      "प्रदेशमा": 3461,
      "त्यसले": 3462,
      "चितवन": 3463,
      "एम": 3464,
      "साउन": 3465,
      "प्रचार": 3466,
      "लगाएर": 3467,
      "न्यायाधीश": 3468,
      "सूच": 3469,
      "फाइदा": 3470,
      "भुक्त": 3471,
      "हुँ": 3472,
      "फोर": 3473,
      "सञ्जाल": 3474,
      "##जर": 3475,
      "##्टा": 3476,
      "##बीचको": 3477,
      "खर्": 3478,
      "होस्": 3479,
      "##टु": 3480,
      "हासिल": 3481,
      "हरि": 3482,
      "##गी": 3483,
      "##ान्त": 3484,
      "जित्": 3485,
      "तलब": 3486,
      "##जसो": 3487,
      "बताइएको": 3488,
      "नभई": 3489,
      "गठबन्ध": 3490,
      "असोज": 3491,
      "इन्ड": 3492,
      "छोड": 3493,
      "ढंग": 3494,
      "मिनेट": 3495,
      "##तिको": 3496,
      "धार्": 3497,
      "##दारी": 3498,
      "##पुरको": 3499,
      "##हिल्यै": 3500,
      "भण्डारी": 3501,
      "भारतमा": 3502,
      "मिस": 3503,
      "दलका": 3504,
      "पूजा": 3505,
      "डलर": 3506,
      "मुलुकमा": 3507,
      "सन्दर्भ": 3508,
      "##होस्": 3509,
      "##फाइ": 3510,
      "चन्द्र": 3511,
      "भदौ": 3512,
      "तर्क": 3513,
      "दर्जन": 3514,
      "वार्षिक": 3515,
      "स्कुल": 3516,
      "बढाउने": 3517,
      "तार": 3518,
      "अलि": 3519,
      "##योजन": 3520,
      "बसेका": 3521,
      "गरिसकेको": 3522,
      "##िन्छन्": 3523,
      "##णिज": 3524,
      "पछाडि": 3525,
      "मैदानमा": 3526,
      "##णिज्य": 3527,
      "##धुनिक": 3528,
      "##गु": 3529,
      "##सिंह": 3530,
      "लगाउन": 3531,
      "बलात्कार": 3532,
      "##मती": 3533,
      "सबैले": 3534,
      "माथ": 3535,
      "घिमिर": 3536,
      "गतिविधि": 3537,
      "शव": 3538,
      "##हण": 3539,
      "##टे": 3540,
      "पात्र": 3541,
      "मानसिक": 3542,
      "गर्नुभ": 3543,
      "बोल": 3544,
      "##लाइन": 3545,
      "खन": 3546,
      "स्वदेश": 3547,
      "##न्यास": 3548,
      "नति": 3549,
      "जग": 3550,
      "##साहित": 3551,
      "छानबिन": 3552,
      "##क्कै": 3553,
      "पुर्या": 3554,
      "अवधिमा": 3555,
      "खेल्न": 3556,
      "हिजो": 3557,
      "##हरूका": 3558,
      "होम": 3559,
      "##राख": 3560,
      "##िएन": 3561,
      "महत्वपूर्ण": 3562,
      "चौथो": 3563,
      "##ियत": 3564,
      "##ियल": 3565,
      "पेस": 3566,
      "महिलाको": 3567,
      "##नुपर्यो": 3568,
      "##ङमा": 3569,
      "दिला": 3570,
      "##सला": 3571,
      "सीमित": 3572,
      "सम्पूर्ण": 3573,
      "सचेत": 3574,
      "गाह": 3575,
      "उद्ध": 3576,
      "साउ": 3577,
      "नेतृत्वको": 3578,
      "##पर्छ": 3579,
      "दिँदै": 3580,
      "सजिलो": 3581,
      "डिभिजन": 3582,
      "ठेकेदार": 3583,
      "फोन": 3584,
      "कल": 3585,
      "रोजगार": 3586,
      "त्र": 3587,
      "शिव": 3588,
      "नगरी": 3589,
      "गराएको": 3590,
      "सम्पर्": 3591,
      "मेला": 3592,
      "आर": 3593,
      "मेडिकल": 3594,
      "पर्याप्त": 3595,
      "धु": 3596,
      "फेसबुक": 3597,
      "किश": 3598,
      "केन्द्रित": 3599,
      "लगातार": 3600,
      "आएपछि": 3601,
      "हिउँ": 3602,
      "समग्र": 3603,
      "##गरमा": 3604,
      "तर्फबाट": 3605,
      "##सू": 3606,
      "##लगायतका": 3607,
      "##हुँच": 3608,
      "द्वन्द्व": 3609,
      "परिणाम": 3610,
      "गणतन्त्र": 3611,
      "टी": 3612,
      "सरो": 3613,
      "##छु": 3614,
      "बढ्": 3615,
      "यहाँका": 3616,
      "पहुँच": 3617,
      "##ाउँछन्": 3618,
      "संघर्ष": 3619,
      "शाही": 3620,
      "हेल": 3621,
      "नगर्ने": 3622,
      "महासंघ": 3623,
      "उद्घा": 3624,
      "आयोजनाको": 3625,
      "##स्कृतिक": 3626,
      "खेलको": 3627,
      "नाय": 3628,
      "निर्माणमा": 3629,
      "##ानु": 3630,
      "सचिवालय": 3631,
      "##दिने": 3632,
      "विश्वकप": 3633,
      "सेट": 3634,
      "त्यसैगरी": 3635,
      "##कुर": 3636,
      "ओभरमा": 3637,
      "##खेत": 3638,
      "प्रग": 3639,
      "जनताले": 3640,
      "##कला": 3641,
      "धार्मिक": 3642,
      "कार्यान्वय": 3643,
      "पुलिस": 3644,
      "ट्या": 3645,
      "लाई": 3646,
      "बनाइएको": 3647,
      "##भे": 3648,
      "फा": 3649,
      "मंसिर": 3650,
      "झापा": 3651,
      "सुनाए": 3652,
      "अन्": 3653,
      "निश्चित": 3654,
      "इन्जिनिय": 3655,
      "सहकार्य": 3656,
      "##िन्दा": 3657,
      "मन्त्रालयका": 3658,
      "उपाध्यक्ष": 3659,
      "सेवन": 3660,
      "सबैको": 3661,
      "मौसम": 3662,
      "हैन": 3663,
      "##गढ": 3664,
      "स्थायी": 3665,
      "##भूत": 3666,
      "##्वि": 3667,
      "स्वय": 3668,
      "खेल्": 3669,
      "##र्ति": 3670,
      "भूमि": 3671,
      "आवाज": 3672,
      "महानगरपालिका": 3673,
      "बढ्न": 3674,
      "##वाला": 3675,
      "##ारीमा": 3676,
      "कम्युनिस्ट": 3677,
      "निम्ति": 3678,
      "अभिनय": 3679,
      "सब": 3680,
      "##नो": 3681,
      "गाह्रो": 3682,
      "##तह": 3683,
      "दिनु": 3684,
      "##मको": 3685,
      "##मले": 3686,
      "तीव्र": 3687,
      "##ियाँ": 3688,
      "सभामुख": 3689,
      "कार्यालयका": 3690,
      "##तका": 3691,
      "गरिन्": 3692,
      "ह्या": 3693,
      "माम": 3694,
      "जान्छ": 3695,
      "##वाई": 3696,
      "सकिएको": 3697,
      "##त्ती": 3698,
      "सम्बन्धमा": 3699,
      "बलमा": 3700,
      "##ाएका": 3701,
      "सुरुवा": 3702,
      "##र्माले": 3703,
      "भारतले": 3704,
      "कान्तिपुर": 3705,
      "अभ्यास": 3706,
      "##चन": 3707,
      "सरोकार": 3708,
      "विधि": 3709,
      "बौ": 3710,
      "चालु": 3711,
      "सबैलाई": 3712,
      "बताउ": 3713,
      "सुन्दर": 3714,
      "प्रारम्भ": 3715,
      "वाम": 3716,
      "##िसकेको": 3717,
      "प्रतिपक्ष": 3718,
      "##पार्": 3719,
      "फेला": 3720,
      "धान": 3721,
      "राहत": 3722,
      "थोर": 3723,
      "माया": 3724,
      "पार्ने": 3725,
      "पार्टीका": 3726,
      "##क्ट": 3727,
      "नो": 3728,
      "प्राय": 3729,
      "इज": 3730,
      "##सचिव": 3731,
      "##न्डर": 3732,
      "##कीय": 3733,
      "बाह": 3734,
      "मलेसिया": 3735,
      "नेतृत्वमा": 3736,
      "प्रवृत्ति": 3737,
      "सल्लाह": 3738,
      "ज्या": 3739,
      "लामा": 3740,
      "दोष": 3741,
      "जिल्लाको": 3742,
      "प्राकृतिक": 3743,
      "काठमाडौंमा": 3744,
      "नम": 3745,
      "त्यसो": 3746,
      "विकासको": 3747,
      "पुष्": 3748,
      "सरकारका": 3749,
      "डेढ": 3750,
      "विभागले": 3751,
      "सेमि": 3752,
      "सही": 3753,
      "पञ्च": 3754,
      "पुगेर": 3755,
      "बेलायत": 3756,
      "लाल": 3757,
      "##ेलको": 3758,
      "पहिला": 3759,
      "मध्ये": 3760,
      "##्रोल": 3761,
      "मुलुकको": 3762,
      "##विध": 3763,
      "सम्मेलन": 3764,
      "अग": 3765,
      "पेश": 3766,
      "मेल": 3767,
      "टेलि": 3768,
      "दरबार": 3769,
      "##राको": 3770,
      "##ज्ञा": 3771,
      "##कका": 3772,
      "तुलनामा": 3773,
      "वाणिज्य": 3774,
      "फोहोर": 3775,
      "##वाट": 3776,
      "तहका": 3777,
      "##ोमा": 3778,
      "यिन": 3779,
      "विपक्ष": 3780,
      "छिमेकी": 3781,
      "काँ": 3782,
      "बताउँदै": 3783,
      "लड": 3784,
      "##विद्यु": 3785,
      "आलोचना": 3786,
      "चलन": 3787,
      "रह्यो": 3788,
      "उद्घाटन": 3789,
      "तिर": 3790,
      "बार्": 3791,
      "कार्यरत": 3792,
      "दिउँ": 3793,
      "भुक्तानी": 3794,
      "##गान": 3795,
      "##ब्र": 3796,
      "समाजमा": 3797,
      "##ञ्चन": 3798,
      "हाँ": 3799,
      "##ठी": 3800,
      "##भने": 3801,
      "तरिका": 3802,
      "राखेका": 3803,
      "टिक": 3804,
      "##्स": 3805,
      "##द्रा": 3806,
      "कम्तीमा": 3807,
      "व्यवस्थित": 3808,
      "अग्रता": 3809,
      "यद्य": 3810,
      "ट्रम्प": 3811,
      "बैंकको": 3812,
      "ढकाल": 3813,
      "##रामा": 3814,
      "##गल": 3815,
      "मार्ग": 3816,
      "##त्पाद": 3817,
      "वर्षीया": 3818,
      "पुगे": 3819,
      "##भित्रै": 3820,
      "बाग": 3821,
      "आफन्त": 3822,
      "विज्ञान": 3823,
      "साझ": 3824,
      "उड": 3825,
      "संस्करण": 3826,
      "##ाउनुपर्ने": 3827,
      "पृथ": 3828,
      "खबर": 3829,
      "##द्र्": 3830,
      "##दाता": 3831,
      "उनीहरूलाई": 3832,
      "जहाज": 3833,
      "प्रतिनिधिस": 3834,
      "थिय": 3835,
      "सर्वा": 3836,
      "##च्छा": 3837,
      "राज्यको": 3838,
      "व्यक्तिगत": 3839,
      "मेगा": 3840,
      "##उनुपर्ने": 3841,
      "##ाइँ": 3842,
      "##वाइ": 3843,
      "उपयुक्त": 3844,
      "माध्यमबाट": 3845,
      "##किलो": 3846,
      "मन्त्रिपरिषद्": 3847,
      "प्राथमिकता": 3848,
      "अख्तियार": 3849,
      "बासिन्दा": 3850,
      "स्म": 3851,
      "खोजी": 3852,
      "कहिल्यै": 3853,
      "यादवले": 3854,
      "बिदा": 3855,
      "फ्रा": 3856,
      "सजा": 3857,
      "थालेपछि": 3858,
      "##लम्ब": 3859,
      "वरिष्ठ": 3860,
      "पदाधिकारी": 3861,
      "जनाएका": 3862,
      "जनशक्ति": 3863,
      "नतिजा": 3864,
      "नजिकै": 3865,
      "लोकतान्त्रिक": 3866,
      "जलविद्यु": 3867,
      "कांग्रेसले": 3868,
      "सांस्कृतिक": 3869,
      "##पे": 3870,
      "प्ले": 3871,
      "थोरै": 3872,
      "बहस": 3873,
      "प्रगति": 3874,
      "निर्यात": 3875,
      "क्रिया": 3876,
      "शासन": 3877,
      "##ोत्सव": 3878,
      "कडा": 3879,
      "प्रसार": 3880,
      "##द्र": 3881,
      "##ब्जा": 3882,
      "चिया": 3883,
      "##भार": 3884,
      "##डाको": 3885,
      "थुप्रै": 3886,
      "प्रेस": 3887,
      "##न्थे": 3888,
      "##िको": 3889,
      "युद्ध": 3890,
      "बाहेक": 3891,
      "सकेका": 3892,
      "##श्र": 3893,
      "महेन्द्र": 3894,
      "सेमिफाइन": 3895,
      "अवसरमा": 3896,
      "फल": 3897,
      "##चे": 3898,
      "औपचारिक": 3899,
      "दलको": 3900,
      "प्रतियोगिताको": 3901,
      "स्वर्ण": 3902,
      "काउ": 3903,
      "##गढी": 3904,
      "कार्क": 3905,
      "##शाली": 3906,
      "पढ्न": 3907,
      "सिर": 3908,
      "आस": 3909,
      "जितेको": 3910,
      "जेल": 3911,
      "बाँड": 3912,
      "आयोजित": 3913,
      "##चु": 3914,
      "महसु": 3915,
      "##वली": 3916,
      "खर्ब": 3917,
      "ज्ञा": 3918,
      "परे": 3919,
      "##ट्टा": 3920,
      "अनेक": 3921,
      "सडकको": 3922,
      "टाइ": 3923,
      "अदालतले": 3924,
      "उपमहान": 3925,
      "आधारित": 3926,
      "बाबु": 3927,
      "निरा": 3928,
      "नियु": 3929,
      "##ण्डकी": 3930,
      "समितिमा": 3931,
      "##वैधानिक": 3932,
      "विष्ट": 3933,
      "##दम": 3934,
      "ट्राफिक": 3935,
      "##मूल": 3936,
      "सम्बन्धी": 3937,
      "##ेश्वर": 3938,
      "मोबाइल": 3939,
      "विजयी": 3940,
      "##एल": 3941,
      "तो": 3942,
      "##वार्य": 3943,
      "आजको": 3944,
      "##परी": 3945,
      "##सुकै": 3946,
      "वार्ता": 3947,
      "परिषद्": 3948,
      "कार्की": 3949,
      "जनसं": 3950,
      "मोर": 3951,
      "अवार्ड": 3952,
      "उनीहरुको": 3953,
      "नगद": 3954,
      "दशम": 3955,
      "लुम्ब": 3956,
      "पाकिस्तान": 3957,
      "चिन्ता": 3958,
      "कुरामा": 3959,
      "##दीले": 3960,
      "##सहितको": 3961,
      "दूध": 3962,
      "##चर": 3963,
      "अनिवार्य": 3964,
      "यदि": 3965,
      "भरत": 3966,
      "अर्ज": 3967,
      "हस्तान्तरण": 3968,
      "ऊर्जा": 3969,
      "जनकपुर": 3970,
      "गाउँपालिकाले": 3971,
      "##देवी": 3972,
      "महोत्सव": 3973,
      "केन्द्रमा": 3974,
      "प्रशिक्षण": 3975,
      "प्रकृति": 3976,
      "सुनु": 3977,
      "गयो": 3978,
      "ढंगले": 3979,
      "पुस": 3980,
      "तोकिएको": 3981,
      "रोक्न": 3982,
      "##खेल": 3983,
      "मिति": 3984,
      "##प्रमुख": 3985,
      "प्रतिनिधिसभा": 3986,
      "म्य": 3987,
      "बीचमा": 3988,
      "प्रतिबद्धता": 3989,
      "जनाले": 3990,
      "दिउँसो": 3991,
      "विजय": 3992,
      "##ीकृत": 3993,
      "ब्याज": 3994,
      "जसमा": 3995,
      "समृद्ध": 3996,
      "सुर्": 3997,
      "कमी": 3998,
      "##भाविक": 3999,
      "विश्ले": 4000,
      "##ःख": 4001,
      "पार्न": 4002,
      "##क्रो": 4003,
      "कम्पनीको": 4004,
      "नियुक्त": 4005,
      "##ङले": 4006,
      "गाड": 4007,
      "नियुक्ति": 4008,
      "मेयर": 4009,
      "##तिका": 4010,
      "##केट": 4011,
      "##रे": 4012,
      "##हरुका": 4013,
      "##नगर": 4014,
      "गर्नका": 4015,
      "##इँ": 4016,
      "खत": 4017,
      "बालुवा": 4018,
      "सै": 4019,
      "त्यस्ता": 4020,
      "सञ्चालक": 4021,
      "खासै": 4022,
      "मतदान": 4023,
      "नारा": 4024,
      "नसक्दा": 4025,
      "##दिएको": 4026,
      "##तः": 4027,
      "संगठन": 4028,
      "##होर्": 4029,
      "गरिब": 4030,
      "##बास": 4031,
      "सशस्त्र": 4032,
      "लेखा": 4033,
      "एपी": 4034,
      "मिलेर": 4035,
      "##ालीमा": 4036,
      "मगर": 4037,
      "##ममा": 4038,
      "बाध्यता": 4039,
      "##व्यक्ति": 4040,
      "विगतमा": 4041,
      "रणनी": 4042,
      "महसुस": 4043,
      "गरिनेछ": 4044,
      "बुझ्न": 4045,
      "शर्माले": 4046,
      "भएपनि": 4047,
      "नम्ब": 4048,
      "सिद्धान्त": 4049,
      "##तिहासिक": 4050,
      "बनि": 4051,
      "##फे": 4052,
      "सुरुमा": 4053,
      "##ठो": 4054,
      "##मार्ट": 4055,
      "मधेसी": 4056,
      "रिप": 4057,
      "जर्म": 4058,
      "आइपुग": 4059,
      "सधैं": 4060,
      "गराइ": 4061,
      "##यमा": 4062,
      "लक्ष्मी": 4063,
      "बौद्ध": 4064,
      "##ुटी": 4065,
      "यसैगरी": 4066,
      "केसीले": 4067,
      "##ल्याण्ड": 4068,
      "दुःख": 4069,
      "संवैधानिक": 4070,
      "जनसंख्या": 4071,
      "फ्रान्स": 4072,
      "रम": 4073,
      "##ानै": 4074,
      "चालक": 4075,
      "खार": 4076,
      "##इरहेको": 4077,
      "##न्तव्य": 4078,
      "हाइ": 4079,
      "चाहिँ": 4080,
      "झु": 4081,
      "राणा": 4082,
      "एक्स": 4083,
      "##चाहि": 4084,
      "एजे": 4085,
      "##किङ": 4086,
      "##ज्ञानिक": 4087,
      "रनको": 4088,
      "मौका": 4089,
      "दाहाल": 4090,
      "अप्": 4091,
      "पर्यटकीय": 4092,
      "उत्पाद": 4093,
      "नेपाललाई": 4094,
      "क्षेत्रीय": 4095,
      "दुर": 4096,
      "वृद्ध": 4097,
      "##शि": 4098,
      "सिँ": 4099,
      "##शाला": 4100,
      "##मारी": 4101,
      "आधुनिक": 4102,
      "व्यवस्थाप": 4103,
      "पाइएको": 4104,
      "##घाट": 4105,
      "स्वीकार": 4106,
      "गाई": 4107,
      "राजदू": 4108,
      "##दिए": 4109,
      "पुराना": 4110,
      "त्रिभु": 4111,
      "परराष्ट्र": 4112,
      "##वत": 4113,
      "देखिएका": 4114,
      "उपमहानगर": 4115,
      "जनालाई": 4116,
      "छिटो": 4117,
      "बरु": 4118,
      "उत्र": 4119,
      "हित": 4120,
      "टाढा": 4121,
      "उचित": 4122,
      "##षद": 4123,
      "शेर": 4124,
      "गोली": 4125,
      "जाँच": 4126,
      "##पश्चिम": 4127,
      "दिनको": 4128,
      "किनभने": 4129,
      "##लीमा": 4130,
      "लगाए": 4131,
      "तस्क": 4132,
      "सम्मेलनमा": 4133,
      "##ीक": 4134,
      "सुख": 4135,
      "भव": 4136,
      "ऐतिहासिक": 4137,
      "##रिङ": 4138,
      "अवि": 4139,
      "क्रा": 4140,
      "हाफ": 4141,
      "माछा": 4142,
      "गुरुङले": 4143,
      "##णि": 4144,
      "लगाइ": 4145,
      "भन्नु": 4146,
      "पुस्ता": 4147,
      "##टाले": 4148,
      "अनुहार": 4149,
      "वर्षपछि": 4150,
      "##र्पा": 4151,
      "फिल्ममा": 4152,
      "बस्त": 4153,
      "##चन्द्र": 4154,
      "##िटल": 4155,
      "##डको": 4156,
      "विकासमा": 4157,
      "सन्देश": 4158,
      "प्ला": 4159,
      "आउट": 4160,
      "सेके": 4161,
      "##तावास": 4162,
      "तथ्य": 4163,
      "बजारको": 4164,
      "मर्मत": 4165,
      "चीनको": 4166,
      "विमानस्थ": 4167,
      "त्रिभुवन": 4168,
      "##ीप": 4169,
      "##नाई": 4170,
      "दिन्छ": 4171,
      "##्यता": 4172,
      "राजी": 4173,
      "चिस": 4174,
      "कोइराला": 4175,
      "एपीएफ": 4176,
      "नामक": 4177,
      "समु": 4178,
      "हल": 4179,
      "अंग्र": 4180,
      "पोल": 4181,
      "लिम": 4182,
      "##वेशन": 4183,
      "##वर्ष": 4184,
      "देखियो": 4185,
      "समयमै": 4186,
      "संघका": 4187,
      "आयोजक": 4188,
      "ग्राहक": 4189,
      "श्रीमा": 4190,
      "##ेनि": 4191,
      "##ौला": 4192,
      "##वाग": 4193,
      "कर्जा": 4194,
      "खाता": 4195,
      "पीडा": 4196,
      "संविधानसभा": 4197,
      "उभ": 4198,
      "रात": 4199,
      "सन्दर्भमा": 4200,
      "सर्वाधिक": 4201,
      "सजाय": 4202,
      "बाँच": 4203,
      "भइरहेका": 4204,
      "अन्न": 4205,
      "देखाएको": 4206,
      "##र्तमान": 4207,
      "##ारो": 4208,
      "आपूर्ति": 4209,
      "##्यौं": 4210,
      "भीम": 4211,
      "एसिया": 4212,
      "##ानले": 4213,
      "यद्यपि": 4214,
      "देखिने": 4215,
      "##जग": 4216,
      "डो": 4217,
      "संकेत": 4218,
      "##ोजिम": 4219,
      "##रीका": 4220,
      "नभएर": 4221,
      "पेट्रोल": 4222,
      "##्याउने": 4223,
      "अदालतमा": 4224,
      "परम्परा": 4225,
      "अप्र": 4226,
      "मल": 4227,
      "उपस्थिति": 4228,
      "युरोप": 4229,
      "भोट": 4230,
      "व्यक्तिको": 4231,
      "छौँ": 4232,
      "पानीको": 4233,
      "हावा": 4234,
      "हस्ताक्षर": 4235,
      "##चौ": 4236,
      "औँ": 4237,
      "फूल": 4238,
      "बोकेर": 4239,
      "##ताब": 4240,
      "##फोट": 4241,
      "त्यतिबेला": 4242,
      "खेलाडीले": 4243,
      "##ें": 4244,
      "बन्यो": 4245,
      "##श्वर": 4246,
      "जसरी": 4247,
      "अभिने": 4248,
      "व्यापारी": 4249,
      "नियमा": 4250,
      "##जाने": 4251,
      "##फलमा": 4252,
      "लाइन": 4253,
      "सहयोगमा": 4254,
      "थिएनन्": 4255,
      "वर्षका": 4256,
      "कर्मचारीको": 4257,
      "##मल": 4258,
      "##जुर": 4259,
      "गाउँपालिकाको": 4260,
      "राज्यले": 4261,
      "वीरगन्ज": 4262,
      "##र्ती": 4263,
      "##गोल": 4264,
      "बहि": 4265,
      "प्रतिशतले": 4266,
      "घुम्": 4267,
      "परिच": 4268,
      "बलि": 4269,
      "क्रान्ति": 4270,
      "##रै": 4271,
      "चलाउन": 4272,
      "घो": 4273,
      "राख्": 4274,
      "भोग": 4275,
      "भ्या": 4276,
      "##दीको": 4277,
      "माटो": 4278,
      "##षामा": 4279,
      "नाच": 4280,
      "बताएको": 4281,
      "प्रदेशका": 4282,
      "##ाग्": 4283,
      "दुर्घटनामा": 4284,
      "##चक": 4285,
      "दशमलव": 4286,
      "दुबै": 4287,
      "##फ्ट": 4288,
      "कांग्रेसका": 4289,
      "यसबाट": 4290,
      "वर्षसम्म": 4291,
      "##ाएर": 4292,
      "जोडिएको": 4293,
      "भावना": 4294,
      "गाँ": 4295,
      "सफलता": 4296,
      "पाइने": 4297,
      "ब्याटिङ": 4298,
      "आवास": 4299,
      "##श्रम": 4300,
      "बाब": 4301,
      "##िटेड": 4302,
      "खोला": 4303,
      "वडाध्यक्ष": 4304,
      "दृश्य": 4305,
      "पर्यो": 4306,
      "फाइनल": 4307,
      "अच": 4308,
      "इट": 4309,
      "असफल": 4310,
      "##र्यो": 4311,
      "बढिरहेको": 4312,
      "लगानीकर्ता": 4313,
      "भित्": 4314,
      "##वस्तु": 4315,
      "अंग": 4316,
      "##ारु": 4317,
      "##ज्": 4318,
      "##कारण": 4319,
      "##सिलो": 4320,
      "##ङका": 4321,
      "सकेनन्": 4322,
      "जंग": 4323,
      "छि": 4324,
      "##स्टर": 4325,
      "जोड्ने": 4326,
      "अत्यन्त": 4327,
      "##मला": 4328,
      "धारा": 4329,
      "न्यु": 4330,
      "भाडा": 4331,
      "उपचारका": 4332,
      "##विहीन": 4333,
      "दसैं": 4334,
      "उपस्थित": 4335,
      "मोह": 4336,
      "पर्दैन": 4337,
      "##ाइमा": 4338,
      "समर्थन": 4339,
      "संविधानको": 4340,
      "व्यस्त": 4341,
      "##क्सी": 4342,
      "##राइ": 4343,
      "##चारीले": 4344,
      "##द्धा": 4345,
      "##्याउन": 4346,
      "##ञ्चल": 4347,
      "चल्": 4348,
      "कठिन": 4349,
      "सुर्खेत": 4350,
      "पश": 4351,
      "पशु": 4352,
      "राजपा": 4353,
      "असन्तु": 4354,
      "खण्डमा": 4355,
      "##समिति": 4356,
      "परिचालन": 4357,
      "##जनक": 4358,
      "खस": 4359,
      "##ण्डा": 4360,
      "कर्मचारीले": 4361,
      "##वाही": 4362,
      "पसल": 4363,
      "लिमिटेड": 4364,
      "चाम": 4365,
      "##जान": 4366,
      "चेत": 4367,
      "दिनुपर्ने": 4368,
      "खोजेको": 4369,
      "##सामा": 4370,
      "निरन्तरता": 4371,
      "हक": 4372,
      "लिइ": 4373,
      "आधारभूत": 4374,
      "दीप": 4375,
      "निवेदन": 4376,
      "##त्तर": 4377,
      "##ध्यापक": 4378,
      "##ंकर": 4379,
      "##ुराम": 4380,
      "भण्डारीले": 4381,
      "##क्षेत्र": 4382,
      "चौधरी": 4383,
      "तेल": 4384,
      "##स्यौ": 4385,
      "##पात": 4386,
      "रिस": 4387,
      "##जको": 4388,
      "##त्तिक": 4389,
      "प्रतिबन्ध": 4390,
      "##टनी": 4391,
      "अवै": 4392,
      "सिँचाइ": 4393,
      "कञ्चन": 4394,
      "तल": 4395,
      "##र्घ": 4396,
      "महाधि": 4397,
      "##िङमा": 4398,
      "जागिर": 4399,
      "##प्रधान": 4400,
      "डर": 4401,
      "उद्धार": 4402,
      "##कानी": 4403,
      "टिप्प": 4404,
      "##ेँ": 4405,
      "##द्योग": 4406,
      "गराएका": 4407,
      "##ग्रा": 4408,
      "पठाएको": 4409,
      "##तीजन्य": 4410,
      "स्टार": 4411,
      "##यक": 4412,
      "सम्पा": 4413,
      "पर्ख": 4414,
      "हालै": 4415,
      "शेर्पा": 4416,
      "चन्द": 4417,
      "पत्ता": 4418,
      "##प्ता": 4419,
      "दिल्ली": 4420,
      "##फत": 4421,
      "##ालका": 4422,
      "##ल्पना": 4423,
      "##पण": 4424,
      "अवरोध": 4425,
      "दोहो": 4426,
      "नगरेको": 4427,
      "##मे": 4428,
      "गुणस्तर": 4429,
      "भग": 4430,
      "घरको": 4431,
      "मस्यौ": 4432,
      "पर्न": 4433,
      "##ेजी": 4434,
      "बालिका": 4435,
      "सम्पर्क": 4436,
      "विष्ण": 4437,
      "वास्तविक": 4438,
      "##न्दे": 4439,
      "श्रीमती": 4440,
      "महिलाले": 4441,
      "##स्को": 4442,
      "चरि": 4443,
      "स्वार्थ": 4444,
      "थालिएको": 4445,
      "सम्पदा": 4446,
      "पुष्प": 4447,
      "कात्तिक": 4448,
      "ग्रामी": 4449,
      "यसो": 4450,
      "पुग्यो": 4451,
      "आउँदा": 4452,
      "##ङ्क": 4453,
      "##भेद": 4454,
      "##आउ": 4455,
      "##सेवा": 4456,
      "शुभ": 4457,
      "अपना": 4458,
      "मस्यौदा": 4459,
      "कामको": 4460,
      "ढा": 4461,
      "घटनामा": 4462,
      "##विन": 4463,
      "नगरपालिकाको": 4464,
      "निकु": 4465,
      "बढाएको": 4466,
      "शंका": 4467,
      "क्यान": 4468,
      "ग्रामीण": 4469,
      "मोदी": 4470,
      "गन्तव्य": 4471,
      "फर्का": 4472,
      "उस्तै": 4473,
      "लागत": 4474,
      "स्वागत": 4475,
      "हस्त": 4476,
      "जय": 4477,
      "##र्को": 4478,
      "लेखक": 4479,
      "साग": 4480,
      "##िकार": 4481,
      "क्यान्स": 4482,
      "ते": 4483,
      "##पल्ट": 4484,
      "विधान": 4485,
      "प्राधिकरणले": 4486,
      "गणेश": 4487,
      "पुर्याउने": 4488,
      "भनिन्छ": 4489,
      "##उनुपर्छ": 4490,
      "प्रिम": 4491,
      "शहर": 4492,
      "पशुप": 4493,
      "##तिव": 4494,
      "##डाले": 4495,
      "सँगै": 4496,
      "गावि": 4497,
      "##दूर": 4498,
      "##योजना": 4499,
      "भइसक": 4500,
      "बराबरको": 4501,
      "तिर्": 4502,
      "ल्याइ": 4503,
      "##बारी": 4504,
      "##ँदैनन्": 4505,
      "तु": 4506,
      "मौलिक": 4507,
      "जापान": 4508,
      "श्रील": 4509,
      "देखिए": 4510,
      "##प्रिय": 4511,
      "मन्त्रालयको": 4512,
      "उत्तिकै": 4513,
      "बताउनुभयो": 4514,
      "साझा": 4515,
      "साय": 4516,
      "प्रसारण": 4517,
      "खारेज": 4518,
      "##घर": 4519,
      "प्रस्ट": 4520,
      "तहले": 4521,
      "निज": 4522,
      "खिच": 4523,
      "फैसला": 4524,
      "##डर": 4525,
      "##वहार": 4526,
      "##लोकन": 4527,
      "महँग": 4528,
      "औद्योग": 4529,
      "गर्नेछन्": 4530,
      "##रागत": 4531,
      "वर्तमान": 4532,
      "दिवस": 4533,
      "किताब": 4534,
      "##िभ": 4535,
      "##ताव": 4536,
      "सिक": 4537,
      "##द्व": 4538,
      "परिचय": 4539,
      "स्थल": 4540,
      "##स्थान": 4541,
      "जनतालाई": 4542,
      "##गरमाथा": 4543,
      "कार्यालयको": 4544,
      "##यान": 4545,
      "चुना": 4546,
      "##ल्स": 4547,
      "छुट्टै": 4548,
      "कमल": 4549,
      "सेकेन्ड": 4550,
      "हेट": 4551,
      "बिग्र": 4552,
      "मेसिन": 4553,
      "विविध": 4554,
      "एकल": 4555,
      "सहायक": 4556,
      "##ुट्टा": 4557,
      "चुनावमा": 4558,
      "##िरो": 4559,
      "खतिव": 4560,
      "मोर्": 4561,
      "काल": 4562,
      "मानिन्छ": 4563,
      "दायित्व": 4564,
      "##ाँडा": 4565,
      "##मुना": 4566,
      "बुढा": 4567,
      "दौड": 4568,
      "हवाई": 4569,
      "##ल्पा": 4570,
      "खोल्ने": 4571,
      "निकुञ्ज": 4572,
      "एन्ड": 4573,
      "##शासन": 4574,
      "बढ्दो": 4575,
      "न्यौ": 4576,
      "आयोगको": 4577,
      "भत्ता": 4578,
      "लाग्न": 4579,
      "##दैनन्": 4580,
      "खाली": 4581,
      "सैनिक": 4582,
      "सगरमाथा": 4583,
      "फाइनलमा": 4584,
      "अत्या": 4585,
      "##्रिक": 4586,
      "एन्": 4587,
      "प्रवाह": 4588,
      "परम्परागत": 4589,
      "कार्यान्वयनमा": 4590,
      "सन्दीप": 4591,
      "राजनीतिमा": 4592,
      "पृथ्व": 4593,
      "थ्री": 4594,
      "कुर": 4595,
      "महिलालाई": 4596,
      "##प्ले": 4597,
      "प्रतिनिधित्व": 4598,
      "सूर्तीजन्य": 4599,
      "रमाइ": 4600,
      "हुनेछन्": 4601,
      "जलविद्युत्": 4602,
      "##तक": 4603,
      "बसो": 4604,
      "बेल": 4605,
      "माथिल्लो": 4606,
      "चरणको": 4607,
      "ठीक": 4608,
      "माओवाद": 4609,
      "##ंख": 4610,
      "चोरी": 4611,
      "छेउ": 4612,
      "मेरा": 4613,
      "कार्कीले": 4614,
      "बिता": 4615,
      "स्मार्ट": 4616,
      "भइसकेका": 4617,
      "बुटवल": 4618,
      "महासचिव": 4619,
      "सिन्ध": 4620,
      "दूतावास": 4621,
      "थु": 4622,
      "एकीकृत": 4623,
      "सूर्य": 4624,
      "अग्": 4625,
      "बाँध": 4626,
      "आत": 4627,
      "गर्छु": 4628,
      "कविता": 4629,
      "दुरुपयोग": 4630,
      "मण्ड": 4631,
      "##ेकै": 4632,
      "चलेको": 4633,
      "##हमा": 4634,
      "मामिला": 4635,
      "चाहन्छ": 4636,
      "##शाखा": 4637,
      "##जुली": 4638,
      "समूहले": 4639,
      "गाउँपालिकाका": 4640,
      "चीनले": 4641,
      "##विन्द": 4642,
      "##वानी": 4643,
      "फैल": 4644,
      "##भूति": 4645,
      "शरीर": 4646,
      "घाँ": 4647,
      "दम": 4648,
      "इंग": 4649,
      "परिस्थिति": 4650,
      "संघीयता": 4651,
      "संघले": 4652,
      "न्यौपा": 4653,
      "संस्थाले": 4654,
      "सुवे": 4655,
      "##पूर्वक": 4656,
      "रहेकाले": 4657,
      "##कृष्ण": 4658,
      "पार्टीले": 4659,
      "##स्सा": 4660,
      "मासिक": 4661,
      "अपा": 4662,
      "टिप्पणी": 4663,
      "##घु": 4664,
      "समयदेखि": 4665,
      "संक्रमण": 4666,
      "##न्देही": 4667,
      "म्याद": 4668,
      "##चाहिँ": 4669,
      "थियौं": 4670,
      "उनीहरुलाई": 4671,
      "##खण्ड": 4672,
      "कुमार": 4673,
      "रिज": 4674,
      "फिल्मको": 4675,
      "कन्": 4676,
      "सेत": 4677,
      "हुनसक्छ": 4678,
      "यसबारे": 4679,
      "भोज": 4680,
      "प्रधानमन्त्रीले": 4681,
      "##ँु": 4682,
      "हातमा": 4683,
      "बिराम": 4684,
      "भत्का": 4685,
      "दे": 4686,
      "कोठा": 4687,
      "##श्चा": 4688,
      "##जत": 4689,
      "##जमा": 4690,
      "मेट": 4691,
      "##जनमा": 4692,
      "##न्सी": 4693,
      "मूर्": 4694,
      "संय": 4695,
      "अनिय": 4696,
      "हौं": 4697,
      "##श्वास": 4698,
      "भन्नुभयो": 4699,
      "सुदूर": 4700,
      "##टिल": 4701,
      "विभागका": 4702,
      "##िसकेका": 4703,
      "इच्छा": 4704,
      "##िएस": 4705,
      "उता": 4706,
      "आकर्षण": 4707,
      "रोपनी": 4708,
      "खाद्य": 4709,
      "सघ": 4710,
      "लगाएका": 4711,
      "##नुस्": 4712,
      "गौर": 4713,
      "##लाग्": 4714,
      "महिनाको": 4715,
      "भट्टराईले": 4716,
      "##मात्रै": 4717,
      "##छोरी": 4718,
      "##ियाका": 4719,
      "सुत्": 4720,
      "इन्टरनेट": 4721,
      "##र्इ": 4722,
      "##कान्तिपुर": 4723,
      "घाटा": 4724,
      "संसदमा": 4725,
      "यसपटक": 4726,
      "पुग्छ": 4727,
      "प्रारम्भिक": 4728,
      "सरस": 4729,
      "संस्कार": 4730,
      "विश्लेषण": 4731,
      "##म्स": 4732,
      "गोरखा": 4733,
      "##न्डा": 4734,
      "वर्षे": 4735,
      "राईले": 4736,
      "##स्ने": 4737,
      "दाइ": 4738,
      "##बोर्ड": 4739,
      "यहाँको": 4740,
      "गर्थे": 4741,
      "फोरम": 4742,
      "##ाए": 4743,
      "लागिएको": 4744,
      "आगो": 4745,
      "चुनावी": 4746,
      "##संघ": 4747,
      "नगरपालिकाका": 4748,
      "विज्ञप्": 4749,
      "##बुझ": 4750,
      "##ाममा": 4751,
      "##ाउको": 4752,
      "नेपालगन्ज": 4753,
      "दीर्घ": 4754,
      "पुष्टि": 4755,
      "##नाम": 4756,
      "रेक": 4757,
      "रहेछन्": 4758,
      "सीप": 4759,
      "##जनको": 4760,
      "कार्यविधि": 4761,
      "प्रवद्र्": 4762,
      "छाप": 4763,
      "##ुली": 4764,
      "##ोस": 4765,
      "औद्योगिक": 4766,
      "कुराकानी": 4767,
      "आफै": 4768,
      "##दीप": 4769,
      "##िङ्": 4770,
      "उहाँको": 4771,
      "मञ्च": 4772,
      "गरिसकेका": 4773,
      "कीर्ति": 4774,
      "बर": 4775,
      "##श्": 4776,
      "कसैलाई": 4777,
      "देख्न": 4778,
      "##प्लव": 4779,
      "##पुरका": 4780,
      "उपाय": 4781,
      "पहाडी": 4782,
      "अप्ठ": 4783,
      "नरहेको": 4784,
      "सफा": 4785,
      "हतियार": 4786,
      "एसियाली": 4787,
      "कानू": 4788,
      "तयारीमा": 4789,
      "शौ": 4790,
      "निष्कर्ष": 4791,
      "बार्सिलो": 4792,
      "बाढी": 4793,
      "गराए": 4794,
      "पठाउने": 4795,
      "सरुवा": 4796,
      "सुरुवात": 4797,
      "##ियोग": 4798,
      "##दरबार": 4799,
      "##र्ताको": 4800,
      "महाशाखा": 4801,
      "##थम": 4802,
      "उपलब्धि": 4803,
      "प्रक्रियामा": 4804,
      "पहिलोपटक": 4805,
      "##पत्रमा": 4806,
      "मान्": 4807,
      "शारी": 4808,
      "##ेवार": 4809,
      "अस्था": 4810,
      "ढुंगा": 4811,
      "कमजोरी": 4812,
      "चलाउने": 4813,
      "विषयलाई": 4814,
      "नोट": 4815,
      "पेन": 4816,
      "आह": 4817,
      "चुर": 4818,
      "##क्षी": 4819,
      "रुकु": 4820,
      "साझेद": 4821,
      "मुस्": 4822,
      "सूचीमा": 4823,
      "उपकरण": 4824,
      "राजदूत": 4825,
      "तोड": 4826,
      "##धीन": 4827,
      "स्थग": 4828,
      "रेकर्ड": 4829,
      "रिल": 4830,
      "##नेले": 4831,
      "##ंै": 4832,
      "लुम्बिनी": 4833,
      "कू": 4834,
      "संवाद": 4835,
      "##नित": 4836,
      "सन्तान": 4837,
      "शारीरिक": 4838,
      "##कूल": 4839,
      "बाटोमा": 4840,
      "च्याम्पियनसि": 4841,
      "विदेशमा": 4842,
      "आर्मी": 4843,
      "अध्या": 4844,
      "सिने": 4845,
      "रगत": 4846,
      "स्थित": 4847,
      "डिजिटल": 4848,
      "आकार": 4849,
      "##पुग्": 4850,
      "चाहना": 4851,
      "छै": 4852,
      "नदिने": 4853,
      "कांग्रेसको": 4854,
      "चौधरीले": 4855,
      "चर्चित": 4856,
      "किसानले": 4857,
      "संख्यामा": 4858,
      "##बजार": 4859,
      "इन्ध": 4860,
      "पदार्थको": 4861,
      "जरि": 4862,
      "हिम": 4863,
      "जनाइएको": 4864,
      "किर": 4865,
      "यथ": 4866,
      "##ाउनुपर्छ": 4867,
      "##्युट": 4868,
      "जडान": 4869,
      "गाउँका": 4870,
      "जटिल": 4871,
      "काठमाडौंको": 4872,
      "इन्जिनियर": 4873,
      "जुम्": 4874,
      "अवैध": 4875,
      "सिजन": 4876,
      "##ेक्टर": 4877,
      "निर्मा": 4878,
      "एकजना": 4879,
      "समायोजन": 4880,
      "थाल्यो": 4881,
      "पाठक": 4882,
      "जसको": 4883,
      "रातो": 4884,
      "##प्टर": 4885,
      "टिकट": 4886,
      "बुबा": 4887,
      "सूची": 4888,
      "मुद्दामा": 4889,
      "पदक": 4890,
      "आकाश": 4891,
      "##भाइ": 4892,
      "छोराछोरी": 4893,
      "अस्थायी": 4894,
      "##हाइ": 4895,
      "रिपोर्ट": 4896,
      "लागेर": 4897,
      "आउँ": 4898,
      "बराबरी": 4899,
      "व्यक्तिले": 4900,
      "प्रोत्": 4901,
      "चोट": 4902,
      "पुर्याउन": 4903,
      "##पीडित": 4904,
      "टीका": 4905,
      "गाय": 4906,
      "महर्जन": 4907,
      "अर्थमन्त्री": 4908,
      "हैस": 4909,
      "पछ": 4910,
      "चिसो": 4911,
      "##ामर्श": 4912,
      "चेताव": 4913,
      "##आउट": 4914,
      "अस्ट्र": 4915,
      "##फर": 4916,
      "##लिन": 4917,
      "ड्र": 4918,
      "##डै": 4919,
      "##खन": 4920,
      "##खित": 4921,
      "लोकप्रिय": 4922,
      "यथार्थ": 4923,
      "मिल्ने": 4924,
      "चेतावनी": 4925,
      "##ोद": 4926,
      "समुदायको": 4927,
      "##टार": 4928,
      "क्षेत्रलाई": 4929,
      "दीपक": 4930,
      "तनाव": 4931,
      "दिनहुँ": 4932,
      "किने": 4933,
      "कान्छ": 4934,
      "उद्य": 4935,
      "उत्प": 4936,
      "##क्सा": 4937,
      "मासु": 4938,
      "सरकारमा": 4939,
      "##खेर": 4940,
      "##वाना": 4941,
      "##ामन्त्री": 4942,
      "भर्खर": 4943,
      "##स्फोट": 4944,
      "रोकिएको": 4945,
      "कालोपत्र": 4946,
      "##डका": 4947,
      "अल्": 4948,
      "उपमहानगरपालिका": 4949,
      "पर्दा": 4950,
      "चाप": 4951,
      "अभिभावक": 4952,
      "विप्लव": 4953,
      "आफैंले": 4954,
      "श्रीलंका": 4955,
      "हुँदैछ": 4956,
      "##ाइने": 4957,
      "भागमा": 4958,
      "उसलाई": 4959,
      "आउनु": 4960,
      "##हरूसँग": 4961,
      "अवरुद्ध": 4962,
      "##पुल": 4963,
      "युनि": 4964,
      "भुट": 4965,
      "##नन्द": 4966,
      "पुग्": 4967,
      "वैज्ञानिक": 4968,
      "बिजुली": 4969,
      "विद्यालयको": 4970,
      "##ाल्डो": 4971,
      "रेडियो": 4972,
      "##कोण": 4973,
      "##सल": 4974,
      "जोश": 4975,
      "हार्": 4976,
      "परामर्श": 4977,
      "अनुरोध": 4978,
      "हेरेर": 4979,
      "पुर्": 4980,
      "स्कु": 4981,
      "केन्द्रका": 4982,
      "भएकी": 4983,
      "सन्तोष": 4984,
      "भारतका": 4985,
      "शौच": 4986,
      "शाक्य": 4987,
      "##पोख": 4988,
      "##बे": 4989,
      "##प्ने": 4990,
      "##्लो": 4991,
      "मुक्त": 4992,
      "अनलाइन": 4993,
      "चरित्र": 4994,
      "प्रिमियर": 4995,
      "खुट्टा": 4996,
      "किसिमको": 4997,
      "दाहालले": 4998,
      "मानिसको": 4999,
      "बेलामा": 5000,
      "##ासम्म": 5001,
      "##क्षम": 5002,
      "सालको": 5003,
      "##नेन्द्र": 5004,
      "##वार्ता": 5005,
      "अलपत्र": 5006,
      "ढिलाइ": 5007,
      "मावि": 5008,
      "नच": 5009,
      "परा": 5010,
      "भत्क": 5011,
      "गाउँपालिकामा": 5012,
      "विभा": 5013,
      "ढोका": 5014,
      "रनमा": 5015,
      "खेल्दै": 5016,
      "मार्फत": 5017,
      "बनायो": 5018,
      "विष्णु": 5019,
      "बजेटमा": 5020,
      "##ेरु": 5021,
      "स्थानीयको": 5022,
      "प्राथमिकतामा": 5023,
      "चल्ने": 5024,
      "##नाका": 5025,
      "##मुखी": 5026,
      "शेरबहादुर": 5027,
      "मदि": 5028,
      "##ासँग": 5029,
      "छाडेर": 5030,
      "##हारी": 5031,
      "गर्दछ": 5032,
      "अर्य": 5033,
      "खेलाडीको": 5034,
      "##म्बु": 5035,
      "##बापत": 5036,
      "विभेद": 5037,
      "कदम": 5038,
      "एन्फा": 5039,
      "चौकी": 5040,
      "फरा": 5041,
      "ठहर": 5042,
      "रुपैयाँको": 5043,
      "भोलि": 5044,
      "अभिव्यक्ति": 5045,
      "नदेख": 5046,
      "भेला": 5047,
      "सके": 5048,
      "निरु": 5049,
      "##एक": 5050,
      "समारो": 5051,
      "खालको": 5052,
      "निवास": 5053,
      "##वमा": 5054,
      "##ेक्ट": 5055,
      "घटेको": 5056,
      "उज": 5057,
      "क्रमश": 5058,
      "##हिर": 5059,
      "समूहमा": 5060,
      "रिलिज": 5061,
      "रक्त": 5062,
      "##प्ट": 5063,
      "झर": 5064,
      "पक्षले": 5065,
      "##धै": 5066,
      "##एनन्": 5067,
      "##र्दा": 5068,
      "व्यवसायीले": 5069,
      "क्वा": 5070,
      "रेग्": 5071,
      "प्रकरण": 5072,
      "हिन्दु": 5073,
      "चोक": 5074,
      "दर्शक": 5075,
      "सेनाले": 5076,
      "गोविन्द": 5077,
      "चौका": 5078,
      "पोखरेलले": 5079,
      "धनगढी": 5080,
      "ओभर": 5081,
      "विना": 5082,
      "लक्षित": 5083,
      "##न्यायाधीश": 5084,
      "पन्त": 5085,
      "##झदारी": 5086,
      "कर्मचारीलाई": 5087,
      "रक्षा": 5088,
      "टेक": 5089,
      "##यको": 5090,
      "संस्थागत": 5091,
      "छुट्या": 5092,
      "भाषामा": 5093,
      "फुटब": 5094,
      "क्याम": 5095,
      "समूहको": 5096,
      "##धिकार": 5097,
      "बुझाइ": 5098,
      "कूटनी": 5099,
      "एल": 5100,
      "परिवारको": 5101,
      "चेक": 5102,
      "सस्तो": 5103,
      "अभावमा": 5104,
      "ओलीको": 5105,
      "साधारण": 5106,
      "ल्याइएको": 5107,
      "आयोजनामा": 5108,
      "मिश्र": 5109,
      "परिवारका": 5110,
      "पौ": 5111,
      "अस्ट्रेल": 5112,
      "मिडिया": 5113,
      "छक्का": 5114,
      "दुर्ग": 5115,
      "किबोर्ड": 5116,
      "रमाइलो": 5117,
      "राजीनामा": 5118,
      "सञ्चालित": 5119,
      "मूल्यांक": 5120,
      "पारेर": 5121,
      "संविधानले": 5122,
      "उपन्यास": 5123,
      "इन": 5124,
      "सन्तुल": 5125,
      "पदमा": 5126,
      "वर्षभित्र": 5127,
      "##भग": 5128,
      "बनाउनु": 5129,
      "##ामै": 5130,
      "डुब": 5131,
      "सिटी": 5132,
      "निर्वाह": 5133,
      "नमुना": 5134,
      "सायद": 5135,
      "सोल": 5136,
      "मद्द": 5137,
      "##ढु": 5138,
      "ल्याएर": 5139,
      "सेन्ट": 5140,
      "##हुन्थ्यो": 5141,
      "कार्ड": 5142,
      "##ालीको": 5143,
      "##नुपा": 5144,
      "पूरै": 5145,
      "दार्": 5146,
      "##नेपाल": 5147,
      "##स्तरीय": 5148,
      "साध": 5149,
      "##खामा": 5150,
      "जरिवाना": 5151,
      "##लुङ": 5152,
      "सिद्धार्थ": 5153,
      "##क्की": 5154,
      "जीवनमा": 5155,
      "प्रधानमन्त्रीको": 5156,
      "सामना": 5157,
      "गुगल": 5158,
      "अर्थात": 5159,
      "खुलेको": 5160,
      "भन्यो": 5161,
      "##िङको": 5162,
      "##ंदै": 5163,
      "सत्त": 5164,
      "आसपा": 5165,
      "लगाइएको": 5166,
      "मजदुर": 5167,
      "##टप": 5168,
      "##व्या": 5169,
      "देखेर": 5170,
      "पूर्वी": 5171,
      "आगलाग": 5172,
      "बसोबास": 5173,
      "पछिल्ला": 5174,
      "टाउको": 5175,
      "##नुपातिक": 5176,
      "सप्त": 5177,
      "प्रेर": 5178,
      "खतरा": 5179,
      "एमा": 5180,
      "छोटो": 5181,
      "योजनामा": 5182,
      "बल्ल": 5183,
      "नपुग": 5184,
      "चालू": 5185,
      "भएमा": 5186,
      "टेलिक": 5187,
      "प्रतिवेदनमा": 5188,
      "शू": 5189,
      "##लार्इ": 5190,
      "देउवाले": 5191,
      "उचाइ": 5192,
      "दिनुपर्छ": 5193,
      "समूहका": 5194,
      "दियो": 5195,
      "कसले": 5196,
      "रानी": 5197,
      "असह": 5198,
      "अनौ": 5199,
      "कैला": 5200,
      "भएकोले": 5201,
      "विद्यार्थीलाई": 5202,
      "राप्र": 5203,
      "गोल्": 5204,
      "स्कुट": 5205,
      "केन्द्रले": 5206,
      "जिम्मेवार": 5207,
      "##शेर": 5208,
      "समानुपातिक": 5209,
      "हुन्न": 5210,
      "कसैको": 5211,
      "##बम": 5212,
      "खेलेको": 5213,
      "##वती": 5214,
      "पढ्ने": 5215,
      "##फोन": 5216,
      "##ङ्गा": 5217,
      "अबको": 5218,
      "घटनाको": 5219,
      "तल्लो": 5220,
      "##योग्य": 5221,
      "चिकित्सा": 5222,
      "##एई": 5223,
      "##नलाई": 5224,
      "कामका": 5225,
      "हाराह": 5226,
      "व्यक्तिलाई": 5227,
      "बहुमत": 5228,
      "अथ": 5229,
      "देखिन्छन्": 5230,
      "अंग्रेजी": 5231,
      "##राँ": 5232,
      "झण्ड": 5233,
      "##कां": 5234,
      "कार्यक्रमको": 5235,
      "अगुवा": 5236,
      "##फ्": 5237,
      "समृद्धिको": 5238,
      "सुनुवाइ": 5239,
      "निधन": 5240,
      "भलि": 5241,
      "खुवा": 5242,
      "##लीको": 5243,
      "फिट": 5244,
      "हेलिक": 5245,
      "दरले": 5246,
      "पत्रिका": 5247,
      "आनन्द": 5248,
      "प्रो": 5249,
      "प्रचण्डले": 5250,
      "नर्स": 5251,
      "व्यापक": 5252,
      "कतार": 5253,
      "##हिने": 5254,
      "स्थगित": 5255,
      "हजुर": 5256,
      "##ोत्त": 5257,
      "चिन": 5258,
      "प्रतिष्ठान": 5259,
      "ज्ञानेन्द्र": 5260,
      "##धारित": 5261,
      "सिंहले": 5262,
      "पुग्दा": 5263,
      "##ुप्": 5264,
      "भइरह": 5265,
      "##यले": 5266,
      "दृष्टिकोण": 5267,
      "सिमेन्ट": 5268,
      "लुट": 5269,
      "इन्द्र": 5270,
      "समाजवादी": 5271,
      "संयन्त्र": 5272,
      "उत्सा": 5273,
      "अत्यधिक": 5274,
      "कोठ": 5275,
      "दिनसम्म": 5276,
      "राप्रपा": 5277,
      "आन्दोलनमा": 5278,
      "##रुपमा": 5279,
      "चित्त": 5280,
      "विकसित": 5281,
      "नवल": 5282,
      "##नीय": 5283,
      "अदालतको": 5284,
      "मेगावाट": 5285,
      "खाँ": 5286,
      "नपाउने": 5287,
      "कक्ष": 5288,
      "साझेदारी": 5289,
      "##्रु": 5290,
      "##द्या": 5291,
      "भिड": 5292,
      "सिल": 5293,
      "नेपालीको": 5294,
      "पत्": 5295,
      "संघको": 5296,
      "##न्च": 5297,
      "देखिँदैन": 5298,
      "देशभर": 5299,
      "टन": 5300,
      "##ारू": 5301,
      "##िसे": 5302,
      "नाफा": 5303,
      "भनाई": 5304,
      "भित्र्य": 5305,
      "मित्र": 5306,
      "किस्ता": 5307,
      "अतिरि": 5308,
      "रहन्छ": 5309,
      "पारे": 5310,
      "शिवि": 5311,
      "रेख": 5312,
      "भ्रमणमा": 5313,
      "टो": 5314,
      "लगभग": 5315,
      "ढुवानी": 5316,
      "स्वीकृत": 5317,
      "लैजाने": 5318,
      "फराकिलो": 5319,
      "हुनाले": 5320,
      "शैली": 5321,
      "श्रमिक": 5322,
      "केजी": 5323,
      "बिहे": 5324,
      "तरिकाले": 5325,
      "अनियमित": 5326,
      "प्रथम": 5327,
      "मधेश": 5328,
      "शौचालय": 5329,
      "हुनुहुन्छ": 5330,
      "##नेका": 5331,
      "##ेकाले": 5332,
      "दरबन्दी": 5333,
      "रेश": 5334,
      "दावी": 5335,
      "##गुन": 5336,
      "समी": 5337,
      "वर": 5338,
      "##सन्त": 5339,
      "##िँदै": 5340,
      "गर्छौं": 5341,
      "शक्तिशाली": 5342,
      "मोर्चा": 5343,
      "टुंगो": 5344,
      "चयन": 5345,
      "##काली": 5346,
      "प्रि": 5347,
      "अलग": 5348,
      "थाइ": 5349,
      "##मुनि": 5350,
      "महँगो": 5351,
      "खड्काले": 5352,
      "##नाइट": 5353,
      "उपभोग": 5354,
      "कपडा": 5355,
      "##ङक": 5356,
      "##कुरा": 5357,
      "पाठ्य": 5358,
      "बारा": 5359,
      "##ालु": 5360,
      "हल्ला": 5361,
      "मन्त्रालयमा": 5362,
      "पाल्": 5363,
      "पट": 5364,
      "निकट": 5365,
      "जंगल": 5366,
      "##कट": 5367,
      "##वादको": 5368,
      "##छौं": 5369,
      "##इरहेका": 5370,
      "नागरिकको": 5371,
      "गएपछि": 5372,
      "मदन": 5373,
      "विस्फोट": 5374,
      "वृ": 5375,
      "विद्रो": 5376,
      "हेटौं": 5377,
      "झण्डै": 5378,
      "##तीको": 5379,
      "अतिरिक्त": 5380,
      "##आफ": 5381,
      "##राव": 5382,
      "हटाउन": 5383,
      "##त्साहित": 5384,
      "##मूलक": 5385,
      "भरमा": 5386,
      "लागे": 5387,
      "हाउ": 5388,
      "##ेनन्": 5389,
      "गल्ती": 5390,
      "आह्व": 5391,
      "##नुपरेको": 5392,
      "बिच": 5393,
      "प्रधानन्यायाधीश": 5394,
      "##क्कली": 5395,
      "पद्ध": 5396,
      "संग्रह": 5397,
      "##ाधीन": 5398,
      "इजला": 5399,
      "हिस्सा": 5400,
      "ग्यास": 5401,
      "क्य": 5402,
      "अन्तरि": 5403,
      "डिजाइन": 5404,
      "नगरपालिकामा": 5405,
      "विद्यार्थीको": 5406,
      "रहेर": 5407,
      "दिदी": 5408,
      "सेनाको": 5409,
      "चरा": 5410,
      "केश": 5411,
      "बस्दै": 5412,
      "क्रियाकला": 5413,
      "##इज": 5414,
      "टोलीको": 5415,
      "##वीर": 5416,
      "रुकुम": 5417,
      "सदस्यीय": 5418,
      "रमेश": 5419,
      "ललितपुर": 5420,
      "मक": 5421,
      "उन्": 5422,
      "विशेषज्ञ": 5423,
      "##पार": 5424,
      "किशोरी": 5425,
      "नक्कली": 5426,
      "हतार": 5427,
      "खेलेका": 5428,
      "##सक्ने": 5429,
      "अन्यो": 5430,
      "हिँ": 5431,
      "##धव": 5432,
      "एकीकरण": 5433,
      "लिगमा": 5434,
      "क्यान्सर": 5435,
      "आवे": 5436,
      "छलफलमा": 5437,
      "नभएकाले": 5438,
      "##ल्का": 5439,
      "अफिस": 5440,
      "ग्या": 5441,
      "म्याच": 5442,
      "##ब्बा": 5443,
      "टोलीमा": 5444,
      "किमि": 5445,
      "विव": 5446,
      "##हिरो": 5447,
      "##कुमारी": 5448,
      "##ाग्र": 5449,
      "मल्ल": 5450,
      "उत्पन्न": 5451,
      "बोल्न": 5452,
      "आकर्षित": 5453,
      "##चोक": 5454,
      "सरकारसँग": 5455,
      "बजेटको": 5456,
      "खोज्ने": 5457,
      "पाकिस्त": 5458,
      "सङ्घ": 5459,
      "निर्धारित": 5460,
      "बोल्": 5461,
      "##नाइटेड": 5462,
      "बढाउँदै": 5463,
      "##कालमा": 5464,
      "##मण्ड": 5465,
      "गरौं": 5466,
      "पटकपटक": 5467,
      "विद्यार्थीले": 5468,
      "जै": 5469,
      "पोखरेल": 5470,
      "दुव": 5471,
      "निकायले": 5472,
      "आएकी": 5473,
      "##धारणा": 5474,
      "चाहिन्छ": 5475,
      "भैरह": 5476,
      "मुक्ति": 5477,
      "सहाय": 5478,
      "हिन्द": 5479,
      "दुईवटा": 5480,
      "##गाउँ": 5481,
      "मनाङ": 5482,
      "##िकर": 5483,
      "कैद": 5484,
      "श्रेष्ठलाई": 5485,
      "स्रोतले": 5486,
      "गर्भ": 5487,
      "कारवाही": 5488,
      "बलिउ": 5489,
      "काराग": 5490,
      "स्तर": 5491,
      "एनस": 5492,
      "##गञ्ज": 5493,
      "सेवाग": 5494,
      "कुखु": 5495,
      "मात्रामा": 5496,
      "चामल": 5497,
      "रियल": 5498,
      "##जात": 5499,
      "कोरिया": 5500,
      "स्वस्थ": 5501,
      "नराम": 5502,
      "राख्दै": 5503,
      "##सम्मका": 5504,
      "नियमावली": 5505,
      "रुट": 5506,
      "देखाउन": 5507,
      "##भूमि": 5508,
      "##ैपर्छ": 5509,
      "##खोला": 5510,
      "समाजको": 5511,
      "नदि": 5512,
      "एप": 5513,
      "विस्था": 5514,
      "शून्य": 5515,
      "भारतबाट": 5516,
      "मूल्यमा": 5517,
      "चलिरहेको": 5518,
      "स्वाम": 5519,
      "समझदारी": 5520,
      "##शै": 5521,
      "प्रतियोगिताका": 5522,
      "नम्बरको": 5523,
      "ट्रया": 5524,
      "मसा": 5525,
      "तातो": 5526,
      "टोलीका": 5527,
      "##परा": 5528,
      "दाजु": 5529,
      "##प्रतिको": 5530,
      "विपक्षी": 5531,
      "सहयोगी": 5532,
      "उद्देश्यले": 5533,
      "निगमले": 5534,
      "सोझ": 5535,
      "रहन": 5536,
      "पहाड": 5537,
      "आयोजनाले": 5538,
      "बाबुराम": 5539,
      "##ञ्चित": 5540,
      "मातृ": 5541,
      "परिवारले": 5542,
      "सिंहदरबार": 5543,
      "##र्दै": 5544,
      "युनाइटेड": 5545,
      "प्रमाणपत्र": 5546,
      "अफगान": 5547,
      "सहि": 5548,
      "##न्ती": 5549,
      "##क्रा": 5550,
      "वायु": 5551,
      "किनकि": 5552,
      "लुका": 5553,
      "##स्की": 5554,
      "होइनन्": 5555,
      "धेरैले": 5556,
      "##्राही": 5557,
      "भिन्न": 5558,
      "संसद्मा": 5559,
      "##सिस": 5560,
      "विद्युतीय": 5561,
      "रस": 5562,
      "##ोले": 5563,
      "##गण": 5564,
      "जित्ने": 5565,
      "रूख": 5566,
      "प्रबन्ध": 5567,
      "सहरी": 5568,
      "##टले": 5569,
      "रोन": 5570,
      "व्याख्या": 5571,
      "अस्ति": 5572,
      "अश": 5573,
      "मदिरा": 5574,
      "केहि": 5575,
      "##टाएर": 5576,
      "केवल": 5577,
      "बिर्स": 5578,
      "बरा": 5579,
      "सुनिश्चित": 5580,
      "खडा": 5581,
      "##शास्त्र": 5582,
      "लेखिएको": 5583,
      "हस्तक्षेप": 5584,
      "भएकै": 5585,
      "रुपैयाँमा": 5586,
      "सर्वे": 5587,
      "भक्तपुर": 5588,
      "आह्वान": 5589,
      "रणनीति": 5590,
      "ढिला": 5591,
      "##ौली": 5592,
      "धनी": 5593,
      "##कमल": 5594,
      "यस्तोमा": 5595,
      "कम्पनीका": 5596,
      "चक्र": 5597,
      "##त्वमा": 5598,
      "आरोहण": 5599,
      "झनै": 5600,
      "अवलोकन": 5601,
      "संस्थाको": 5602,
      "नदीमा": 5603,
      "क्षेत्रबाट": 5604,
      "कम्युनिष्ट": 5605,
      "कन्ट": 5606,
      "##साधन": 5607,
      "उपरीक्षक": 5608,
      "निरुत्साहित": 5609,
      "##बाबु": 5610,
      "##युद्ध": 5611,
      "आयु": 5612,
      "नरेन्द्र": 5613,
      "सजिल": 5614,
      "तोकेको": 5615,
      "चर्को": 5616,
      "नसकिने": 5617,
      "नकारात्मक": 5618,
      "अवधारणा": 5619,
      "प्रदू": 5620,
      "ट्वि": 5621,
      "केटा": 5622,
      "शिक्षण": 5623,
      "फ्र": 5624,
      "धेरैजसो": 5625,
      "विज्ञा": 5626,
      "बेप": 5627,
      "भन्छिन्": 5628,
      "गायक": 5629,
      "बिस्तार": 5630,
      "वडामा": 5631,
      "सजिलै": 5632,
      "पैदल": 5633,
      "सुदूरपश्चिम": 5634,
      "जस": 5635,
      "##लेपछि": 5636,
      "स्वामित्व": 5637,
      "जमा": 5638,
      "बेलु": 5639,
      "##लगत्तै": 5640,
      "जोशी": 5641,
      "सेवाग्राही": 5642,
      "मकवान": 5643,
      "दोहोरो": 5644,
      "खराब": 5645,
      "चर": 5646,
      "नलाग": 5647,
      "जग्गामा": 5648,
      "##ाउन्ड": 5649,
      "##ाई": 5650,
      "गतेदेखि": 5651,
      "सिरि": 5652,
      "अस्वी": 5653,
      "##नुको": 5654,
      "##स्पद": 5655,
      "##नीमा": 5656,
      "प्रजातन्त्र": 5657,
      "नपाएको": 5658,
      "राखे": 5659,
      "##किन": 5660,
      "##हीँ": 5661,
      "##ालगायत": 5662,
      "वीरेन्द्र": 5663,
      "गण्डकी": 5664,
      "दिगो": 5665,
      "न्यायिक": 5666,
      "##रूपमा": 5667,
      "##रात": 5668,
      "पशुपति": 5669,
      "बित": 5670,
      "##र्ना": 5671,
      "बाढ": 5672,
      "धनु": 5673,
      "कोइरालाले": 5674,
      "राजेन्द्र": 5675,
      "महानि": 5676,
      "उमेरमा": 5677,
      "##श्चिमा": 5678,
      "जित्न": 5679,
      "आकर्षक": 5680,
      "गर्नुभयो": 5681,
      "उस": 5682,
      "##प्रधानमन्त्री": 5683,
      "##मशेर": 5684,
      "सकिँदैन": 5685,
      "##ंगो": 5686,
      "बू": 5687,
      "प्रकारको": 5688,
      "स्ना": 5689,
      "खेलाडीलाई": 5690,
      "न्यूनतम": 5691,
      "##्र्यो": 5692,
      "नष्ट": 5693,
      "अमेरिकामा": 5694,
      "मुटु": 5695,
      "गुणस्तरीय": 5696,
      "नपर्ने": 5697,
      "गतेसम्म": 5698,
      "धू": 5699,
      "स्वाभाविक": 5700,
      "##दिन्छ": 5701,
      "परिवारलाई": 5702,
      "आरोपमा": 5703,
      "मनमा": 5704,
      "मिल्दैन": 5705,
      "तिनै": 5706,
      "##स्प": 5707,
      "##वेदनशील": 5708,
      "इलाम": 5709,
      "लामि": 5710,
      "##धामा": 5711,
      "सरसफाइ": 5712,
      "विस्त": 5713,
      "जितेका": 5714,
      "##डाइ": 5715,
      "जसलाई": 5716,
      "##लिम": 5717,
      "कहिलेका": 5718,
      "खर": 5719,
      "भीड": 5720,
      "##वृद्धि": 5721,
      "त्रिवि": 5722,
      "##कहाँ": 5723,
      "सुपर": 5724,
      "प्रकाशन": 5725,
      "##दियो": 5726,
      "##ियार": 5727,
      "यतिबेला": 5728,
      "रहि": 5729,
      "स्वतन्त्रता": 5730,
      "अह": 5731,
      "आयोगका": 5732,
      "अमेरिकाको": 5733,
      "विशाल": 5734,
      "गोपाल": 5735,
      "हङक": 5736,
      "निकाल": 5737,
      "##सत": 5738,
      "##आइ": 5739,
      "##एकी": 5740,
      "अपांग": 5741,
      "भेटिएको": 5742,
      "जुनसुकै": 5743,
      "##िसम्म": 5744,
      "आधिका": 5745,
      "##यल": 5746,
      "नेकपाका": 5747,
      "साब": 5748,
      "##ीहरुले": 5749,
      "सरोकारवाला": 5750,
      "गोर्": 5751,
      "साइकल": 5752,
      "मूल्यांकन": 5753,
      "हकमा": 5754,
      "माधव": 5755,
      "सुन्त": 5756,
      "आतंक": 5757,
      "खोल": 5758,
      "एकेड": 5759,
      "##क्सन": 5760,
      "##थी": 5761,
      "बेपत्ता": 5762,
      "डाय": 5763,
      "रोजाइमा": 5764,
      "विसं": 5765,
      "नभएपछि": 5766,
      "##एसपी": 5767,
      "शिक्षाको": 5768,
      "गौरव": 5769,
      "##िसन": 5770,
      "कन्स": 5771,
      "प्रवद्र्धन": 5772,
      "टिमले": 5773,
      "सेमिफाइनलमा": 5774,
      "प्रती": 5775,
      "##ुरू": 5776,
      "मल्": 5777,
      "प्रदीप": 5778,
      "गर्नुभएको": 5779,
      "बराम": 5780,
      "भन्नेमा": 5781,
      "राना": 5782,
      "शेयर": 5783,
      "बर्स": 5784,
      "बुवा": 5785,
      "खाद्या": 5786,
      "##र्प": 5787,
      "##पाठ": 5788,
      "उम्मेदवारी": 5789,
      "##टाको": 5790,
      "##श्रमिक": 5791,
      "##वेद": 5792,
      "##ंगी": 5793,
      "मी": 5794,
      "काउन्स": 5795,
      "##चो": 5796,
      "रोनाल्डो": 5797,
      "पाएपछि": 5798,
      "कित्ता": 5799,
      "तिमी": 5800,
      "पृष्ठ": 5801,
      "कालोपत्रे": 5802,
      "ढुंग": 5803,
      "लामिछा": 5804,
      "##मैत्री": 5805,
      "अष्ट्र": 5806,
      "हराएको": 5807,
      "सिक्": 5808,
      "बारे": 5809,
      "एमालेले": 5810,
      "स्वयं": 5811,
      "मोहन": 5812,
      "खोज्न": 5813,
      "##तु": 5814,
      "मसान्त": 5815,
      "आवेदन": 5816,
      "खाद्यान्न": 5817,
      "लिगको": 5818,
      "आचार्यले": 5819,
      "आशंका": 5820,
      "लगानीमा": 5821,
      "प्रोत्सा": 5822,
      "सिमा": 5823,
      "उदय": 5824,
      "दलले": 5825,
      "##न्यज": 5826,
      "अलिक": 5827,
      "##कर्षण": 5828,
      "प्रहरीका": 5829,
      "पठाइ": 5830,
      "##आमा": 5831,
      "केन्द्रको": 5832,
      "##ोस्": 5833,
      "छाया": 5834,
      "शल्य": 5835,
      "##िस्ट": 5836,
      "निः": 5837,
      "गरेकाले": 5838,
      "##क्रममा": 5839,
      "अर्जुन": 5840,
      "चिनि": 5841,
      "तै": 5842,
      "##ब्ब": 5843,
      "##क्ल": 5844,
      "बनाउँदै": 5845,
      "शो": 5846,
      "विस्तृत": 5847,
      "नल": 5848,
      "##काइ": 5849,
      "##सेन": 5850,
      "विनोद": 5851,
      "गर्द": 5852,
      "पला": 5853,
      "##विका": 5854,
      "##विद्": 5855,
      "सदन": 5856,
      "निर्माता": 5857,
      "बयान": 5858,
      "##कर्ताको": 5859,
      "वाइ": 5860,
      "बढ्छ": 5861,
      "युन": 5862,
      "##जुङ": 5863,
      "चाड": 5864,
      "वटै": 5865,
      "एफ": 5866,
      "तीनै": 5867,
      "स्वदेशी": 5868,
      "मस्": 5869,
      "मुद्रा": 5870,
      "यथा": 5871,
      "##हरी": 5872,
      "दफा": 5873,
      "अफगानि": 5874,
      "स्को": 5875,
      "पुष्पकमल": 5876,
      "नज": 5877,
      "क्षतिपूर्ति": 5878,
      "रेशम": 5879,
      "##मय": 5880,
      "निरीक्षक": 5881,
      "##झैं": 5882,
      "निर्वाचनको": 5883,
      "इलाका": 5884,
      "छात्र": 5885,
      "जातीय": 5886,
      "उत्पादनमा": 5887,
      "श्रीमान्": 5888,
      "पाइप": 5889,
      "##प्रा": 5890,
      "भाषण": 5891,
      "किरण": 5892,
      "झो": 5893,
      "पोखरी": 5894,
      "कृषक": 5895,
      "मुलुकका": 5896,
      "बिज": 5897,
      "##लम्बन": 5898,
      "पुरानै": 5899,
      "महतो": 5900,
      "वान": 5901,
      "##िना": 5902,
      "आमाको": 5903,
      "आफु": 5904,
      "मानवीय": 5905,
      "हप्ता": 5906,
      "बचत": 5907,
      "लाग्दैन": 5908,
      "##वास्ता": 5909,
      "पुगेपछि": 5910,
      "लिभर": 5911,
      "सिनेमा": 5912,
      "एकपटक": 5913,
      "##कल्प": 5914,
      "##संस्था": 5915,
      "भैरहवा": 5916,
      "##ृति": 5917,
      "रूपा": 5918,
      "##ैमा": 5919,
      "चाहिने": 5920,
      "माझ": 5921,
      "मकै": 5922,
      "परिणत": 5923,
      "##िष्ट": 5924,
      "चलचित्रमा": 5925,
      "अथवा": 5926,
      "##खत": 5927,
      "विश्वका": 5928,
      "##निस": 5929,
      "दिएपछि": 5930,
      "संकट": 5931,
      "##ञ्जन": 5932,
      "##ेसी": 5933,
      "संवेदनशील": 5934,
      "बरामद": 5935,
      "स्तरो": 5936,
      "अस्पतालको": 5937,
      "##हरूबाट": 5938,
      "शिक्ष": 5939,
      "बढेर": 5940,
      "गार्": 5941,
      "सवाल": 5942,
      "नाइ": 5943,
      "##ूहिक": 5944,
      "लैजान": 5945,
      "घिमिरे": 5946,
      "##फाँ": 5947,
      "बीउ": 5948,
      "##ाँचो": 5949,
      "##क्कर": 5950,
      "##रल": 5951,
      "जग्गाको": 5952,
      "उत्साह": 5953,
      "##निर्भर": 5954,
      "सामूहिक": 5955,
      "आउँछन्": 5956,
      "मुआ": 5957,
      "एकेडेम": 5958,
      "गतिमा": 5959,
      "नायिका": 5960,
      "रहँदा": 5961,
      "नागरिकलाई": 5962,
      "##न्यजन्तु": 5963,
      "पारिश्रमिक": 5964,
      "पर्सा": 5965,
      "लम": 5966,
      "जीवनको": 5967,
      "जाँदै": 5968,
      "पक्कै": 5969,
      "असन्तुष्टि": 5970,
      "##ोटी": 5971,
      "##बिना": 5972,
      "संविधानमा": 5973,
      "दर्शन": 5974,
      "अभियानमा": 5975,
      "आक्रो": 5976,
      "##स्किल": 5977,
      "ध्याना": 5978,
      "पञ्चाय": 5979,
      "बालबालिकालाई": 5980,
      "स्तरोन्न": 5981,
      "फरार": 5982,
      "लगत्तै": 5983,
      "लिटर": 5984,
      "आधिकारिक": 5985,
      "##थर": 5986,
      "##दमै": 5987,
      "##भित्रको": 5988,
      "प्रकारका": 5989,
      "##न्दै": 5990,
      "##जाति": 5991,
      "प्ल": 5992,
      "##भेन्ट": 5993,
      "बक्स": 5994,
      "##ग्रेस": 5995,
      "समयको": 5996,
      "मुस्किल": 5997,
      "##सनल": 5998,
      "##ठमा": 5999,
      "पठाउन": 6000,
      "हेलिकप्टर": 6001,
      "भन": 6002,
      "वसन्त": 6003,
      "दाउ": 6004,
      "बन्छ": 6005,
      "व्यापारिक": 6006,
      "राम्रै": 6007,
      "चिनी": 6008,
      "केसीको": 6009,
      "उखु": 6010,
      "विस्थापित": 6011,
      "युवराज": 6012,
      "भलिबल": 6013,
      "लगानीको": 6014,
      "ह्यान्ड": 6015,
      "##विपरी": 6016,
      "सक्षम": 6017,
      "गर्दैन": 6018,
      "##तर": 6019,
      "##डोर": 6020,
      "सापको": 6021,
      "इन्धन": 6022,
      "डाइ": 6023,
      "ब्राजिल": 6024,
      "चाँडै": 6025,
      "किशोर": 6026,
      "##लाग्दो": 6027,
      "सन": 6028,
      "त्यसरी": 6029,
      "अफ्र": 6030,
      "##दृ": 6031,
      "अट": 6032,
      "##रान": 6033,
      "महाधिवेशन": 6034,
      "निशुल्क": 6035,
      "##भाषा": 6036,
      "मतदाता": 6037,
      "कल्पना": 6038,
      "##ोषण": 6039,
      "प्रविधिको": 6040,
      "लिमिटेडले": 6041,
      "प्रशासनले": 6042,
      "नेपालीले": 6043,
      "हिँड्": 6044,
      "##दायी": 6045,
      "प्रणालीमा": 6046,
      "पेसा": 6047,
      "पालना": 6048,
      "नेताले": 6049,
      "##गरीय": 6050,
      "##शल": 6051,
      "##ृत्य": 6052,
      "अतिक्रमण": 6053,
      "नह": 6054,
      "भेट्न": 6055,
      "हाफमा": 6056,
      "गठबन्धन": 6057,
      "ढिलो": 6058,
      "स्थिर": 6059,
      "रवि": 6060,
      "किन्न": 6061,
      "लेखेको": 6062,
      "विद्युत": 6063,
      "बर्द": 6064,
      "प्रोत्साहन": 6065,
      "ध्व": 6066,
      "रहेन": 6067,
      "##व्यापी": 6068,
      "प्रहरीलाई": 6069,
      "परिक": 6070,
      "म्यु": 6071,
      "गाउँले": 6072,
      "एकदमै": 6073,
      "अनुभूति": 6074,
      "वर्षौं": 6075,
      "##जीको": 6076,
      "##वक्ता": 6077,
      "शाहले": 6078,
      "प्रशंसा": 6079,
      "##ंकन": 6080,
      "रिट": 6081,
      "उपप्रमुख": 6082,
      "ध्यानाकर्षण": 6083,
      "भाउ": 6084,
      "भनेपछि": 6085,
      "जोगाउन": 6086,
      "आख": 6087,
      "समीक्षा": 6088,
      "मुआब्जा": 6089,
      "बैंकका": 6090,
      "##हाले": 6091,
      "शाहीले": 6092,
      "##बाहिर": 6093,
      "तब": 6094,
      "हँु": 6095,
      "समयसम्म": 6096,
      "आबद्ध": 6097,
      "##मेत": 6098,
      "दै": 6099,
      "##सीमा": 6100,
      "महानगरीय": 6101,
      "कपिल": 6102,
      "##स्टार": 6103,
      "##नुहुन्छ": 6104,
      "बनाउँछ": 6105,
      "ल्याएका": 6106,
      "लियो": 6107,
      "जन्मा": 6108,
      "मर": 6109,
      "##पक्षीय": 6110,
      "उम": 6111,
      "स्मरण": 6112,
      "अनुप": 6113,
      "तुलना": 6114,
      "कालि": 6115,
      "कार्यमा": 6116,
      "गीतमा": 6117,
      "प्रमाणित": 6118,
      "घोषित": 6119,
      "पत्नी": 6120,
      "##हको": 6121,
      "बैंकिङ": 6122,
      "उठाउन": 6123,
      "आइरहेको": 6124,
      "##होला": 6125,
      "ग्रहण": 6126,
      "विमानस्थलमा": 6127,
      "कार्यसमिति": 6128,
      "पार्टीमा": 6129,
      "##रहे": 6130,
      "लिखित": 6131,
      "दिनदेखि": 6132,
      "त्यहाँको": 6133,
      "सदुपयोग": 6134,
      "##हत्या": 6135,
      "##स्न": 6136,
      "शल्यक्रिया": 6137,
      "वन्यजन्तु": 6138,
      "प्रिय": 6139,
      "बजेसम्म": 6140,
      "खालका": 6141,
      "##पश्चा": 6142,
      "कुरालाई": 6143,
      "दीर्घकालीन": 6144,
      "##सम्ममा": 6145,
      "##परिवार": 6146,
      "डिफे": 6147,
      "उनकै": 6148,
      "विधेयकमा": 6149,
      "वास": 6150,
      "##भावी": 6151,
      "गोल्डक": 6152,
      "जोखिममा": 6153,
      "खुशी": 6154,
      "नेपालबाट": 6155,
      "स्रोतका": 6156,
      "फलफ": 6157,
      "जात्रा": 6158,
      "अल्प": 6159,
      "ठग": 6160,
      "##ृंख": 6161,
      "नमा": 6162,
      "गुड": 6163,
      "पोखरामा": 6164,
      "दास": 6165,
      "##ताल": 6166,
      "##ाराम": 6167,
      "##र्द": 6168,
      "रहनेछ": 6169,
      "काभ": 6170,
      "कमिट": 6171,
      "बस्तीमा": 6172,
      "अडान": 6173,
      "रुख": 6174,
      "जोडी": 6175,
      "उठाउने": 6176,
      "चाहेको": 6177,
      "##खाना": 6178,
      "##स्टिक": 6179,
      "पका": 6180,
      "##्यारो": 6181,
      "संशोध": 6182,
      "बमोजिम": 6183,
      "थान": 6184,
      "विपरी": 6185,
      "मिट": 6186,
      "प्रतिपक्षी": 6187,
      "यसपाल": 6188,
      "##्र्य": 6189,
      "नियमन": 6190,
      "बर्सेनि": 6191,
      "ढकालले": 6192,
      "##वनमा": 6193,
      "परिसर": 6194,
      "##ढुंगा": 6195,
      "थिम": 6196,
      "बोल्ने": 6197,
      "लिभरपुल": 6198,
      "लेखेका": 6199,
      "निगर": 6200,
      "महिनाअघि": 6201,
      "##कामना": 6202,
      "##न्टा": 6203,
      "##िनो": 6204,
      "त्यसबेला": 6205,
      "सकिन": 6206,
      "देवी": 6207,
      "सञ्जालमा": 6208,
      "बनेर": 6209,
      "मानिसले": 6210,
      "दूर": 6211,
      "वाग": 6212,
      "युवती": 6213,
      "आगलागी": 6214,
      "एमालेका": 6215,
      "साउदी": 6216,
      "पाण्डेले": 6217,
      "नबुझ": 6218,
      "माध्य": 6219,
      "##उँछिन्": 6220,
      "अन्यत्र": 6221,
      "अख": 6222,
      "डोज": 6223,
      "ओपन": 6224,
      "##भेट": 6225,
      "बनाई": 6226,
      "दिनअघि": 6227,
      "##कल्पिक": 6228,
      "##मानित": 6229,
      "नवलपरा": 6230,
      "साथमा": 6231,
      "निर्माणाधीन": 6232,
      "सन्ध": 6233,
      "अष्ट्रेल": 6234,
      "सेन्टर": 6235,
      "बस्नेतले": 6236,
      "रचना": 6237,
      "##निकी": 6238,
      "निक्षेप": 6239,
      "राम्रा": 6240,
      "##ुग": 6241,
      "करण": 6242,
      "काउन्सिल": 6243,
      "शुरू": 6244,
      "##ड्रि": 6245,
      "दुइ": 6246,
      "बाली": 6247,
      "रोमा": 6248,
      "मनोर": 6249,
      "##ितो": 6250,
      "जोडिएका": 6251,
      "भूमिकामा": 6252,
      "नीतिगत": 6253,
      "##ेलमा": 6254,
      "बेवास्ता": 6255,
      "भूकम्पले": 6256,
      "##विजे": 6257,
      "लामाले": 6258,
      "तान": 6259,
      "##ख्रा": 6260,
      "##रोग": 6261,
      "जथा": 6262,
      "पार्क": 6263,
      "गरिबी": 6264,
      "##ाल्टी": 6265,
      "तीमध्ये": 6266,
      "##विपरीत": 6267,
      "तौल": 6268,
      "फर्म": 6269,
      "##ब्बर": 6270,
      "आन्दोलनको": 6271,
      "ट्रम्पले": 6272,
      "रौ": 6273,
      "छर": 6274,
      "##म्बार": 6275,
      "तट": 6276,
      "भाडामा": 6277,
      "अड": 6278,
      "##मीले": 6279,
      "बैशाख": 6280,
      "ठाकुर": 6281,
      "##बई": 6282,
      "मौन": 6283,
      "##ानीले": 6284,
      "प्रादेशिक": 6285,
      "प्रदूषण": 6286,
      "इंग्": 6287,
      "##वित": 6288,
      "निगरानी": 6289,
      "##डले": 6290,
      "बिरामीको": 6291,
      "पेनाल्टी": 6292,
      "देखिन": 6293,
      "तामाङले": 6294,
      "अन्तरिम": 6295,
      "रत्न": 6296,
      "खासगरी": 6297,
      "दोषी": 6298,
      "विवेक": 6299,
      "आक्रोश": 6300,
      "##हरुसँग": 6301,
      "जाति": 6302,
      "समस्याको": 6303,
      "तिर्न": 6304,
      "##राले": 6305,
      "पुर्याएको": 6306,
      "विद्यालयका": 6307,
      "तिहार": 6308,
      "मर्या": 6309,
      "सर्वेक्षण": 6310,
      "मोडल": 6311,
      "शुद्ध": 6312,
      "चार्": 6313,
      "रेड": 6314,
      "##पुस्ता": 6315,
      "हेटौंडा": 6316,
      "सेवामा": 6317,
      "सशक्त": 6318,
      "थपिएको": 6319,
      "##ुम": 6320,
      "आयोज": 6321,
      "छिट्टै": 6322,
      "खनालले": 6323,
      "##अघ": 6324,
      "शरीरमा": 6325,
      "धरान": 6326,
      "मूर्ति": 6327,
      "##धारा": 6328,
      "योग्य": 6329,
      "हद": 6330,
      "दायर": 6331,
      "घरबाट": 6332,
      "समुदायका": 6333,
      "प्रशासनिक": 6334,
      "##घरमा": 6335,
      "विद्यालयले": 6336,
      "दुर्गा": 6337,
      "एक्लै": 6338,
      "पक्का": 6339,
      "सुध": 6340,
      "##अप": 6341,
      "दोल": 6342,
      "क्रियाकलाप": 6343,
      "शता": 6344,
      "किसानलाई": 6345,
      "गृहमन्त्री": 6346,
      "##्मण": 6347,
      "कोठामा": 6348,
      "अभ्या": 6349,
      "क्षण": 6350,
      "बोट": 6351,
      "पर्यटकको": 6352,
      "नमिल्": 6353,
      "साँच्च": 6354,
      "कुँ": 6355,
      "कुराको": 6356,
      "##लाइन्स": 6357,
      "निःशुल्क": 6358,
      "तिब्ब": 6359,
      "संसदको": 6360,
      "##पालन": 6361,
      "##टाएको": 6362,
      "##डल": 6363,
      "कम्पनीलाई": 6364,
      "##तर्फको": 6365,
      "क्याम्पस": 6366,
      "अक्": 6367,
      "ह्वा": 6368,
      "कब्जा": 6369,
      "सहसचिव": 6370,
      "धमा": 6371,
      "ब्": 6372,
      "गान्ध": 6373,
      "विज्ञापन": 6374,
      "युट": 6375,
      "##अगा": 6376,
      "##ह्न": 6377,
      "निरी": 6378,
      "पदार्थमा": 6379,
      "राख्नु": 6380,
      "विष्टले": 6381,
      "नहर": 6382,
      "कमाइ": 6383,
      "त्यहाँका": 6384,
      "गुट": 6385,
      "##प्रकाश": 6386,
      "घिमिरेले": 6387,
      "##केको": 6388,
      "पाउनु": 6389,
      "##ण्डित": 6390,
      "पन्छ": 6391,
      "भइन्": 6392,
      "उत्पादक": 6393,
      "जसका": 6394,
      "भर्खरै": 6395,
      "पति": 6396,
      "अर्ध": 6397,
      "हुनसक्ने": 6398,
      "कार्यकाल": 6399,
      "कुकुर": 6400,
      "आयोजनाका": 6401,
      "लापर": 6402,
      "कागज": 6403,
      "परेपछि": 6404,
      "म्याग्": 6405,
      "राजधानीमा": 6406,
      "##पार्क": 6407,
      "कर्त": 6408,
      "##स्तर": 6409,
      "सुरुङ": 6410,
      "##पोर्ट": 6411,
      "देवको": 6412,
      "मन्दिरमा": 6413,
      "खतिवडाले": 6414,
      "होटलमा": 6415,
      "किसिमका": 6416,
      "अमेरिकाले": 6417,
      "##्ररी": 6418,
      "##लेट": 6419,
      "हुन्थे": 6420,
      "कोट": 6421,
      "##ौट": 6422,
      "बानी": 6423,
      "निकायको": 6424,
      "डाँ": 6425,
      "रै": 6426,
      "##सञ्च": 6427,
      "##लक": 6428,
      "बुझ्ने": 6429,
      "##टरफाइन": 6430,
      "नगर्न": 6431,
      "गंगा": 6432,
      "अन्नपूर्ण": 6433,
      "खोल्न": 6434,
      "राउत": 6435,
      "सहजै": 6436,
      "त्यसबाट": 6437,
      "स्याउ": 6438,
      "##भाष": 6439,
      "घरमै": 6440,
      "होमस्ट": 6441,
      "##लीले": 6442,
      "आइपुग्": 6443,
      "अनशन": 6444,
      "चो": 6445,
      "##शालामा": 6446,
      "##ार्ने": 6447,
      "सकियो": 6448,
      "बैंकमा": 6449,
      "प्रयोगकर्ता": 6450,
      "लिइएको": 6451,
      "पाउँछन्": 6452,
      "श्रेष्ठको": 6453,
      "विश्वकपमा": 6454,
      "पार्किङ": 6455,
      "मिले": 6456,
      "गेट": 6457,
      "पेट्रोलियम": 6458,
      "नु": 6459,
      "इम": 6460,
      "त्याग": 6461,
      "सेटमा": 6462,
      "अर्जेन्ट": 6463,
      "ठु": 6464,
      "##िफ": 6465,
      "हिमाली": 6466,
      "उद्योगी": 6467,
      "प्याक": 6468,
      "विपरीत": 6469,
      "##भक्त": 6470,
      "##सेन्स": 6471,
      "##िलो": 6472,
      "बोल्दै": 6473,
      "क्लबले": 6474,
      "तीनवटा": 6475,
      "भोलिप": 6476,
      "##शमशेर": 6477,
      "##तहत": 6478,
      "भविष्यमा": 6479,
      "सेवाको": 6480,
      "मालपो": 6481,
      "देशले": 6482,
      "##रगा": 6483,
      "##पन्थ": 6484,
      "प्रष्ट": 6485,
      "पाउँदा": 6486,
      "सुशील": 6487,
      "खोलामा": 6488,
      "आपत्ति": 6489,
      "पर्छन्": 6490,
      "पुँजीगत": 6491,
      "##लट": 6492,
      "##र्द्ध": 6493,
      "##वरी": 6494,
      "##ाल्गुन": 6495,
      "भोग्": 6496,
      "त्यसअघि": 6497,
      "##काले": 6498,
      "मुस्लिम": 6499,
      "हजारौं": 6500,
      "ब्ल": 6501,
      "दिँदा": 6502,
      "टाँ": 6503,
      "##र्देश": 6504,
      "आलु": 6505,
      "रुचि": 6506,
      "बस्नेत": 6507,
      "पारिवार": 6508,
      "##धम": 6509,
      "तपाईँ": 6510,
      "मोरङ": 6511,
      "युवापुस्ता": 6512,
      "विपन्न": 6513,
      "थारू": 6514,
      "##ख्य": 6515,
      "जला": 6516,
      "जात": 6517,
      "##ेजमा": 6518,
      "खनाल": 6519,
      "उपविजे": 6520,
      "शिखर": 6521,
      "नारी": 6522,
      "बनाउँदा": 6523,
      "प्रशासकीय": 6524,
      "श्याम": 6525,
      "##्नुपर्ने": 6526,
      "कम्प्युट": 6527,
      "नराम्रो": 6528,
      "##नीकरण": 6529,
      "लाग्दा": 6530,
      "स्टिकर": 6531,
      "उन्न": 6532,
      "वैकल्पिक": 6533,
      "सुशासन": 6534,
      "##जीवन": 6535,
      "##ड्ड": 6536,
      "सिन्धु": 6537,
      "##दित": 6538,
      "मान्ने": 6539,
      "अंश": 6540,
      "जानकार": 6541,
      "पारेका": 6542,
      "सिकार": 6543,
      "पह": 6544,
      "लघु": 6545,
      "##विश्वास": 6546,
      "कानून": 6547,
      "कुखुरा": 6548,
      "सत": 6549,
      "टोलीलाई": 6550,
      "सबभन्दा": 6551,
      "सास्ती": 6552,
      "देखाउने": 6553,
      "##ियन्स": 6554,
      "बन्दरगा": 6555,
      "लोभ": 6556,
      "मधु": 6557,
      "ताप": 6558,
      "सहरमा": 6559,
      "##वटै": 6560,
      "जाडो": 6561,
      "नेताहरू": 6562,
      "एसपी": 6563,
      "निजाम": 6564,
      "##ँदे": 6565,
      "निर्मला": 6566,
      "बन": 6567,
      "पु¥": 6568,
      "जथाभावी": 6569,
      "उत्पादित": 6570,
      "##मिला": 6571,
      "डिप": 6572,
      "मात्रा": 6573,
      "बाघ": 6574,
      "##जले": 6575,
      "निर्णायक": 6576,
      "काली": 6577,
      "हौ": 6578,
      "कुर्": 6579,
      "सयौं": 6580,
      "##्युब": 6581,
      "##्याएको": 6582,
      "आत्महत्या": 6583,
      "लिम्ब": 6584,
      "मानिएको": 6585,
      "अपहरण": 6586,
      "सक्दैनन्": 6587,
      "हराउँदै": 6588,
      "आउँदै": 6589,
      "साविक": 6590,
      "स्वच्छ": 6591,
      "उपाध्या": 6592,
      "शैलीमा": 6593,
      "हरायो": 6594,
      "संस्थान": 6595,
      "एड": 6596,
      "चर्चामा": 6597,
      "बाइ": 6598,
      "बृह": 6599,
      "##र्सन": 6600,
      "पारिवारिक": 6601,
      "दिइने": 6602,
      "##ामक": 6603,
      "दिनेश": 6604,
      "जोशीले": 6605,
      "##दय": 6606,
      "आफैँ": 6607,
      "कपाल": 6608,
      "ओलम्प": 6609,
      "अस्पतालले": 6610,
      "गीतको": 6611,
      "सभामा": 6612,
      "तथ्या": 6613,
      "भारी": 6614,
      "##सरकारी": 6615,
      "भरतपुर": 6616,
      "##किल": 6617,
      "##वृत्ति": 6618,
      "भएसँगै": 6619,
      "धम्": 6620,
      "होलान्": 6621,
      "##षे": 6622,
      "##हिता": 6623,
      "##ीमाथि": 6624,
      "रिय": 6625,
      "किबोर्डको": 6626,
      "रुपियाँ": 6627,
      "हात्ती": 6628,
      "चिन्": 6629,
      "लुगा": 6630,
      "पाल्पा": 6631,
      "पठाइएको": 6632,
      "शंकर": 6633,
      "##साय": 6634,
      "बारम्बार": 6635,
      "बराबर": 6636,
      "अधिकारीको": 6637,
      "मद्दत": 6638,
      "कूटनीतिक": 6639,
      "बुझाउन": 6640,
      "तपाईंको": 6641,
      "बिल": 6642,
      "सञ्चालनका": 6643,
      "अनियमितता": 6644,
      "##मिति": 6645,
      "बिग": 6646,
      "खानी": 6647,
      "पद्धति": 6648,
      "##पीए": 6649,
      "धमाधम": 6650,
      "नुवा": 6651,
      "##माथिको": 6652,
      "पश्चिमा": 6653,
      "बिस्तारै": 6654,
      "लोड": 6655,
      "गाउ": 6656,
      "शरण": 6657,
      "स्वि": 6658,
      "##पोखरी": 6659,
      "सभास": 6660,
      "सुत्के": 6661,
      "सेमिफाइनल": 6662,
      "प्रकट": 6663,
      "हान": 6664,
      "नागरिकले": 6665,
      "सिंगा": 6666,
      "##फिल्": 6667,
      "प्रालि": 6668,
      "परिषद": 6669,
      "तारा": 6670,
      "भिसा": 6671,
      "समाजवाद": 6672,
      "फलफूल": 6673,
      "##पछिको": 6674,
      "##सिद्ध": 6675,
      "प्राध्यापक": 6676,
      "गौतमले": 6677,
      "बाह्य": 6678,
      "##लमान": 6679,
      "मार्च": 6680,
      "##ार्न": 6681,
      "तिनको": 6682,
      "लेख्न": 6683,
      "देशलाई": 6684,
      "हामीसँग": 6685,
      "पारदर्श": 6686,
      "मनाउने": 6687,
      "एकातिर": 6688,
      "अनुसन्धानमा": 6689,
      "शपथ": 6690,
      "##मणि": 6691,
      "अन्तशुल्क": 6692,
      "नायक": 6693,
      "##मका": 6694,
      "योजनाको": 6695,
      "उद्योगमा": 6696,
      "परिमा": 6697,
      "जोडेर": 6698,
      "मनाइ": 6699,
      "राय": 6700,
      "##न्दर्य": 6701,
      "सम्पादन": 6702,
      "बिरुवा": 6703,
      "बिहानै": 6704,
      "उपत्यकामा": 6705,
      "अनिल": 6706,
      "##हराले": 6707,
      "##नासाथ": 6708,
      "गिरी": 6709,
      "दिल्": 6710,
      "विशिष्ट": 6711,
      "##ग्रस्त": 6712,
      "##भित्रका": 6713,
      "##्याइ": 6714,
      "गराइएको": 6715,
      "##सिना": 6716,
      "##शैली": 6717,
      "वर्षयता": 6718,
      "फैलिएको": 6719,
      "फार्": 6720,
      "##काई": 6721,
      "जितेर": 6722,
      "सतह": 6723,
      "##वरले": 6724,
      "##माया": 6725,
      "निषे": 6726,
      "विभागको": 6727,
      "ठोस": 6728,
      "घाम": 6729,
      "धन्य": 6730,
      "निकालेको": 6731,
      "भवनमा": 6732,
      "नक्सा": 6733,
      "##्र्या": 6734,
      "हुर्क": 6735,
      "फिल": 6736,
      "समाप्त": 6737,
      "सहिद": 6738,
      "##स्वा": 6739,
      "मर्": 6740,
      "टस": 6741,
      "नृत्य": 6742,
      "##निङ": 6743,
      "रुपन्देही": 6744,
      "वास्तवमा": 6745,
      "##यू": 6746,
      "स्वर": 6747,
      "लाइसेन्स": 6748,
      "प्रतिशतभन्दा": 6749,
      "युग": 6750,
      "खोज्दै": 6751,
      "##न्जेल": 6752,
      "नैतिक": 6753,
      "महिनादेखि": 6754,
      "संस्थामा": 6755,
      "##्याङ": 6756,
      "हुला": 6757,
      "रहर": 6758,
      "तालिका": 6759,
      "##टका": 6760,
      "पत्रकारिता": 6761,
      "सौन्दर्य": 6762,
      "टेलिभिजन": 6763,
      "##वत्": 6764,
      "##जल": 6765,
      "##ागमन": 6766,
      "क्रो": 6767,
      "##मुक्त": 6768,
      "ठगी": 6769,
      "##ह्र": 6770,
      "स्कुटरको": 6771,
      "मनोज": 6772,
      "नेताहरु": 6773,
      "##सान": 6774,
      "नदीको": 6775,
      "##ेग": 6776,
      "सांसदले": 6777,
      "लगेर": 6778,
      "विश्वमा": 6779,
      "दीपेन्द्र": 6780,
      "यसैबीच": 6781,
      "चेल्": 6782,
      "##श्रो": 6783,
      "##ग्राम": 6784,
      "चलचित्रको": 6785,
      "विर": 6786,
      "बुझाएको": 6787,
      "गाविस": 6788,
      "दिनुभयो": 6789,
      "आमाले": 6790,
      "तस": 6791,
      "सुरक्षाको": 6792,
      "पाउनेछन्": 6793,
      "ट्रक": 6794,
      "##लोमा": 6795,
      "##सक्दा": 6796,
      "शिशु": 6797,
      "##माल": 6798,
      "पुलको": 6799,
      "सल्लाहकार": 6800,
      "अनाव": 6801,
      "डेब": 6802,
      "बालबालिकाको": 6803,
      "साफ": 6804,
      "पाहु": 6805,
      "प्रदर्शनमा": 6806,
      "हाराहारीमा": 6807,
      "गुप्": 6808,
      "##समक्ष": 6809,
      "स्तरमा": 6810,
      "मोदीले": 6811,
      "बलिङ": 6812,
      "विस्तारै": 6813,
      "बोकेको": 6814,
      "##डिङ": 6815,
      "उत्पादनको": 6816,
      "##वीकरण": 6817,
      "##वद्ध": 6818,
      "मुस्ता": 6819,
      "कर्तव्य": 6820,
      "##्वी": 6821,
      "शिक्षामा": 6822,
      "कारागार": 6823,
      "##्वाइ": 6824,
      "प्रसंग": 6825,
      "रोल्पा": 6826,
      "##सकेपछि": 6827,
      "ब्रान्ड": 6828,
      "गुणा": 6829,
      "##म्च": 6830,
      "गाउँको": 6831,
      "परिवेश": 6832,
      "बीमा": 6833,
      "पायो": 6834,
      "धाद": 6835,
      "##सहर": 6836,
      "सरकारबाट": 6837,
      "क्षमताको": 6838,
      "##्चोक": 6839,
      "##पेक्ष": 6840,
      "धनुषा": 6841,
      "कूल": 6842,
      "सदस्यले": 6843,
      "छैनौं": 6844,
      "निर्देशिका": 6845,
      "उपहार": 6846,
      "अटो": 6847,
      "सिस्ट": 6848,
      "यिनै": 6849,
      "##गण्डकी": 6850,
      "अस्पतालका": 6851,
      "जिते": 6852,
      "एयरलाइन्स": 6853,
      "थपे": 6854,
      "निराश": 6855,
      "##चार्ज": 6856,
      "##हीं": 6857,
      "अस्वीकार": 6858,
      "सुरुआ": 6859,
      "##िएकाले": 6860,
      "शेख": 6861,
      "उत्साहित": 6862,
      "मानिसलाई": 6863,
      "##साई": 6864,
      "##बमोजिम": 6865,
      "वार": 6866,
      "##्यान्ड": 6867,
      "परेर": 6868,
      "दूरी": 6869,
      "##वान्": 6870,
      "तिहाइ": 6871,
      "##ँदैछ": 6872,
      "##डीब": 6873,
      "किसानको": 6874,
      "बाख्रा": 6875,
      "तस्करी": 6876,
      "सुनको": 6877,
      "खेलबाट": 6878,
      "रहँदै": 6879,
      "सामु": 6880,
      "रुपैयाँसम्म": 6881,
      "विश्वको": 6882,
      "##ाउँमा": 6883,
      "खानेकुरा": 6884,
      "भाषाको": 6885,
      "##यती": 6886,
      "##गन": 6887,
      "जिन्द": 6888,
      "दाँ": 6889,
      "खोज्दा": 6890,
      "##पानीको": 6891,
      "गुज": 6892,
      "केशव": 6893,
      "गिरि": 6894,
      "बेल्": 6895,
      "दुन": 6896,
      "सट्टा": 6897,
      "##आफ्न": 6898,
      "लाखौं": 6899,
      "##बो": 6900,
      "अवकाश": 6901,
      "रेलमार्ग": 6902,
      "सञ्चारमा": 6903,
      "##हाल्": 6904,
      "##न्टी": 6905,
      "सुन्न": 6906,
      "##ेरोजग": 6907,
      "स्वाद": 6908,
      "##वर्ती": 6909,
      "प्राप्": 6910,
      "कार्यक्रमका": 6911,
      "बनाउनुपर्ने": 6912,
      "अनावश्यक": 6913,
      "करी": 6914,
      "माओवादीले": 6915,
      "फ्रे": 6916,
      "सरस्व": 6917,
      "रुच": 6918,
      "छोडेर": 6919,
      "चल्न": 6920,
      "हृ": 6921,
      "आश्वास": 6922,
      "बुद्धि": 6923,
      "ठप्प": 6924,
      "कैलाली": 6925,
      "धनकु": 6926,
      "##जरको": 6927,
      "##ुस": 6928,
      "सहमत": 6929,
      "उल्लेख्य": 6930,
      "जनजाति": 6931,
      "बनेपछि": 6932,
      "युवापुस्ताको": 6933,
      "देख्दा": 6934,
      "त्यसकारण": 6935,
      "पक्की": 6936,
      "##पाल्चोक": 6937,
      "ट्रेड": 6938,
      "##ासहित": 6939,
      "हेक्टर": 6940,
      "##म्मद": 6941,
      "मुम्ब": 6942,
      "##लागि": 6943,
      "एच": 6944,
      "अर्कै": 6945,
      "जनाउँदै": 6946,
      "काठमाडौंका": 6947,
      "अधिवेशन": 6948,
      "##दक": 6949,
      "माध्यमिक": 6950,
      "विषा": 6951,
      "पुनले": 6952,
      "यार्": 6953,
      "कल्या": 6954,
      "ठूल": 6955,
      "पण्डित": 6956,
      "लम्": 6957,
      "##सके": 6958,
      "सवारीसाधन": 6959,
      "##न्तिक": 6960,
      "फाइल": 6961,
      "बढ्यो": 6962,
      "##स्थलमा": 6963,
      "##िङ्ग": 6964,
      "चुरे": 6965,
      "अस्तित्व": 6966,
      "म्यानचे": 6967,
      "उठेको": 6968,
      "ठिक": 6969,
      "रजत": 6970,
      "##्नुपर्छ": 6971,
      "##्याएर": 6972,
      "रोक्": 6973,
      "##गडा": 6974,
      "तहलाई": 6975,
      "पाण्डे": 6976,
      "जैविक": 6977,
      "ज्य": 6978,
      "त्यहाँबाट": 6979,
      "सेवनलाई": 6980,
      "##कलन": 6981,
      "उत्तरी": 6982,
      "सक्नुपर्छ": 6983,
      "##विवाह": 6984,
      "##गोलिक": 6985,
      "निजामती": 6986,
      "फर्": 6987,
      "##ेन्स": 6988,
      "##सीका": 6989,
      "निकाल्न": 6990,
      "ग्राहकहरुका": 6991,
      "लागतमा": 6992,
      "विभाजन": 6993,
      "तसर्थ": 6994,
      "बराबरीमा": 6995,
      "##जाको": 6996,
      "जनमत": 6997,
      "गहिरो": 6998,
      "राजेश": 6999,
      "दाङ": 7000,
      "मन्त्रिपरिषद": 7001,
      "प्रायः": 7002,
      "गइरहेको": 7003,
      "विक्रम": 7004,
      "चेतना": 7005,
      "##टामा": 7006,
      "बुढ": 7007,
      "टिममा": 7008,
      "डल": 7009,
      "सिन्ड": 7010,
      "दौ": 7011,
      "बाबा": 7012,
      "प्रस्तावित": 7013,
      "##राय": 7014,
      "जनताका": 7015,
      "हिरो": 7016,
      "नेताको": 7017,
      "जिप": 7018,
      "रेम": 7019,
      "##ङ्गो": 7020,
      "मैत्री": 7021,
      "एज": 7022,
      "अभिनेता": 7023,
      "अनुकूल": 7024,
      "दोब्बर": 7025,
      "भद्र": 7026,
      "भौगोलिक": 7027,
      "अड्": 7028,
      "तन": 7029,
      "##फाल्गुन": 7030,
      "उनकी": 7031,
      "प्रशस्त": 7032,
      "वर्ण": 7033,
      "म्युजिक": 7034,
      "अरुण": 7035,
      "सेतो": 7036,
      "आउँदो": 7037,
      "एकअ": 7038,
      "औसत": 7039,
      "##भल": 7040,
      "बौद्धिक": 7041,
      "सन्तु": 7042,
      "मनोन": 7043,
      "नदिएको": 7044,
      "प्रतिभा": 7045,
      "##खे": 7046,
      "सुत्केरी": 7047,
      "##चाप": 7048,
      "प्रचलन": 7049,
      "राजु": 7050,
      "स्पोर्ट": 7051,
      "रेस्ट": 7052,
      "##ओस्": 7053,
      "तीर्थ": 7054,
      "रारा": 7055,
      "व्यक्तित्व": 7056,
      "प्रकाशितफाल्गुन": 7057,
      "##विरोध": 7058,
      "खेले": 7059,
      "एनआर": 7060,
      "##रलाई": 7061,
      "##वहारिक": 7062,
      "सिन्धुपाल्चोक": 7063,
      "रौतह": 7064,
      "त्रास": 7065,
      "थाल्": 7066,
      "##काको": 7067,
      "कमिटी": 7068,
      "##त्रीले": 7069,
      "उत्खन": 7070,
      "कीर्तिमान": 7071,
      "##चीन": 7072,
      "##औष": 7073,
      "##कस्": 7074,
      "मालिक": 7075,
      "लेन": 7076,
      "समारोहमा": 7077,
      "समस्यामा": 7078,
      "##यात्रा": 7079,
      "गोक": 7080,
      "बताइ": 7081,
      "राव": 7082,
      "थापाको": 7083,
      "सत्र": 7084,
      "नेट": 7085,
      "लागु": 7086,
      "जोड्न": 7087,
      "सिकाइ": 7088,
      "स्थितिमा": 7089,
      "##पेट": 7090,
      "इतिहासमा": 7091,
      "जर्मन": 7092,
      "साँघ": 7093,
      "सहितको": 7094,
      "##जियम": 7095,
      "मातहत": 7096,
      "कास्की": 7097,
      "बेरोजग": 7098,
      "##स्तरमा": 7099,
      "अधिकारको": 7100,
      "##्छु": 7101,
      "माल्": 7102,
      "अपर": 7103,
      "व्यवस्थापनमा": 7104,
      "वञ्चित": 7105,
      "##वर्क": 7106,
      "##ीहरुको": 7107,
      "सयभन्दा": 7108,
      "भाग्य": 7109,
      "बुँदे": 7110,
      "गाली": 7111,
      "##कारले": 7112,
      "रोगको": 7113,
      "इँ": 7114,
      "पारिएको": 7115,
      "स्ट्र": 7116,
      "##च्छेद": 7117,
      "फर्कने": 7118,
      "खपत": 7119,
      "प्रको": 7120,
      "राजकुमार": 7121,
      "अभियुक्त": 7122,
      "जर्मनी": 7123,
      "सहायता": 7124,
      "सञ्चारमाध्यम": 7125,
      "ठक्कर": 7126,
      "कता": 7127,
      "##ीता": 7128,
      "संयोजकत्वमा": 7129,
      "सिधै": 7130,
      "दोलखा": 7131,
      "##िनको": 7132,
      "हुम्": 7133,
      "गुल्": 7134,
      "अपरि": 7135,
      "कल्याण": 7136,
      "##एकाले": 7137,
      "##लिङ": 7138,
      "इन्ट": 7139,
      "##जय": 7140,
      "##स्थापना": 7141,
      "उका": 7142,
      "प्रयोगमा": 7143,
      "आत्मनिर्भर": 7144,
      "##त्ताको": 7145,
      "राष्ट्रसंघ": 7146,
      "##यख": 7147,
      "##भच": 7148,
      "प्राधिकरणको": 7149,
      "आया": 7150,
      "##जीले": 7151,
      "##कता": 7152,
      "##्योति": 7153,
      "पार्दै": 7154,
      "उपेन्द्र": 7155,
      "पारस": 7156,
      "समाजका": 7157,
      "स्कोर": 7158,
      "##ालमा": 7159,
      "दिइन्": 7160,
      "एम्ब": 7161,
      "वरिपरि": 7162,
      "सद्": 7163,
      "हजारभन्दा": 7164,
      "##विरुद्धको": 7165,
      "गइ": 7166,
      "कामलाई": 7167,
      "घरपरिवार": 7168,
      "भुटान": 7169,
      "अभिलेख": 7170,
      "मानिने": 7171,
      "असल": 7172,
      "सल": 7173,
      "ऋयख": 7174,
      "अमर": 7175,
      "क्यलन": 7176,
      "नमिल्ने": 7177,
      "ऋयखभच": 7178,
      "लन्ड": 7179,
      "मिलेको": 7180,
      "प्रस्तुति": 7181,
      "दिशा": 7182,
      "टिमको": 7183,
      "मिच": 7184,
      "चलाएको": 7185,
      "निकायमा": 7186,
      "फाल": 7187,
      "स्वभाव": 7188,
      "दिनभित्र": 7189,
      "गर्भव": 7190,
      "##सोस": 7191,
      "पठन": 7192,
      "अन्योल": 7193,
      "##र्देशक": 7194,
      "गर्नै": 7195,
      "थो": 7196,
      "प्रधाना": 7197,
      "तुरु": 7198,
      "##न्क": 7199,
      "महिनाभित्र": 7200,
      "तत्कालै": 7201,
      "रोक्ने": 7202,
      "विशेषता": 7203,
      "##पाटी": 7204,
      "नहुनु": 7205,
      "आयोजकले": 7206,
      "सेल": 7207,
      "नुवाकोट": 7208,
      "कृति": 7209,
      "##ेजस्तो": 7210,
      "जाम": 7211,
      "अन्त्यमा": 7212,
      "छात्रा": 7213,
      "कठि": 7214,
      "बाक्": 7215,
      "##ालीले": 7216,
      "हिरा": 7217,
      "##दत्त": 7218,
      "रोहित": 7219,
      "नाकाबन्दी": 7220,
      "ओम": 7221,
      "##ण्ठ": 7222,
      "देखाएर": 7223,
      "##िसी": 7224,
      "भोलिपल्ट": 7225,
      "मोदीको": 7226,
      "##ाचार": 7227,
      "एकअर्का": 7228,
      "##बित्तिकै": 7229,
      "संचालन": 7230,
      "कानुनको": 7231,
      "बेलायती": 7232,
      "हुनेमा": 7233,
      "महारा": 7234,
      "उल्ल": 7235,
      "नायब": 7236,
      "स्मृति": 7237,
      "वर्": 7238,
      "डीपी": 7239,
      "तुरुन्त": 7240,
      "विश्वकै": 7241,
      "##सम्यान": 7242,
      "समाजले": 7243,
      "##द्धान्तिक": 7244,
      "मालपोत": 7245,
      "##नारायण": 7246,
      "बढे": 7247,
      "सुब्बा": 7248,
      "राष्ट्रको": 7249,
      "फ्या": 7250,
      "खाएर": 7251,
      "कोरियाली": 7252,
      "##औषध": 7253,
      "नराख": 7254,
      "##हार्": 7255,
      "न्यूनीकरण": 7256,
      "ऐनमा": 7257,
      "अनुगम": 7258,
      "नट": 7259,
      "इंग्ल्यान्ड": 7260,
      "तप": 7261,
      "लक्षण": 7262,
      "##पछ": 7263,
      "##र्फत्": 7264,
      "किनार": 7265,
      "विरोधमा": 7266,
      "##राष्ट्रपति": 7267,
      "##ंक्ति": 7268,
      "कौ": 7269,
      "राज्यका": 7270,
      "त्यहीँ": 7271,
      "रूपान्तरण": 7272,
      "विमानस्थलको": 7273,
      "घुम्न": 7274,
      "##माघ": 7275,
      "भएँ": 7276,
      "##नेस": 7277,
      "उपचारमा": 7278,
      "गैरसरकारी": 7279,
      "आठौं": 7280,
      "##सत्ता": 7281,
      "सहुल": 7282,
      "तिल": 7283,
      "सदस्यको": 7284,
      "बोर्डले": 7285,
      "##िनमा": 7286,
      "नेताहरूले": 7287,
      "##याम": 7288,
      "आदर्श": 7289,
      "##छुट": 7290,
      "##वट": 7291,
      "मुम्बई": 7292,
      "अचम्म": 7293,
      "भइसक्यो": 7294,
      "अधिकतम": 7295,
      "सृ": 7296,
      "नसकेपछि": 7297,
      "##ंदा": 7298,
      "##काउ": 7299,
      "नेप्": 7300,
      "अफ्रिका": 7301,
      "कथ": 7302,
      "आप्र": 7303,
      "लडा": 7304,
      "##त्मा": 7305,
      "समावेशी": 7306,
      "कार्यद": 7307,
      "रूपले": 7308,
      "बीचको": 7309,
      "सैद्धान्तिक": 7310,
      "अफगानिस्तान": 7311,
      "नाघ": 7312,
      "सुवेदीले": 7313,
      "##भास": 7314,
      "असा": 7315,
      "हेड": 7316,
      "##िन्थ्यो": 7317,
      "आयल": 7318,
      "घन्टा": 7319,
      "रेमिट": 7320,
      "डोजर": 7321,
      "पक्षको": 7322,
      "निको": 7323,
      "राम्रोसँग": 7324,
      "चीनमा": 7325,
      "##ण्डमा": 7326,
      "दोश्रो": 7327,
      "##पन्थी": 7328,
      "ज्ञवाल": 7329,
      "नदिन": 7330,
      "एसोस": 7331,
      "निमि": 7332,
      "माने": 7333,
      "आजै": 7334,
      "भुस": 7335,
      "भित्री": 7336,
      "आश्वासन": 7337,
      "##वीन्द्र": 7338,
      "भिडियोमा": 7339,
      "##गट": 7340,
      "छैट": 7341,
      "चिन्त": 7342,
      "कक्षामा": 7343,
      "बाहिरि": 7344,
      "राजधानीको": 7345,
      "ओलम्पिक": 7346,
      "राम्ररी": 7347,
      "##शेष": 7348,
      "दिन्छन्": 7349,
      "घरधु": 7350,
      "प्रदर्शनी": 7351,
      "चाहन्छु": 7352,
      "सकिएपछि": 7353,
      "दिनपछि": 7354,
      "##हुँदै": 7355,
      "##न्टल": 7356,
      "च्याम्पियन्स": 7357,
      "आदिवासी": 7358,
      "परिचयपत्र": 7359,
      "घेरा": 7360,
      "##बहि": 7361,
      "भ्रमणका": 7362,
      "बढेपछि": 7363,
      "##यौँ": 7364,
      "समग्रमा": 7365,
      "अँ": 7366,
      "भेटघाट": 7367,
      "हटाउने": 7368,
      "टिप": 7369,
      "##नालाई": 7370,
      "करको": 7371,
      "परिमाण": 7372,
      "##िनु": 7373,
      "##डीमा": 7374,
      "भाज": 7375,
      "हेर्नुस्": 7376,
      "तिनी": 7377,
      "स्कुलमा": 7378,
      "हङकङ": 7379,
      "अध्ययनरत": 7380,
      "रामचन्द्र": 7381,
      "शान्त": 7382,
      "##सीय": 7383,
      "##खाले": 7384,
      "बेहोर्": 7385,
      "##ड्दै": 7386,
      "समुदायले": 7387,
      "सुवास": 7388,
      "कच्चा": 7389,
      "##पास": 7390,
      "ज्याला": 7391,
      "##ंकी": 7392,
      "उतार": 7393,
      "निमित्त": 7394,
      "द्वि": 7395,
      "सुन्": 7396,
      "##सीसी": 7397,
      "खटिएका": 7398,
      "भुइँ": 7399,
      "विकृति": 7400,
      "समर्थक": 7401,
      "हैसियत": 7402,
      "कम्पनीमा": 7403,
      "दान": 7404,
      "सकिन्न": 7405,
      "क्यामेरा": 7406,
      "##ारुढ": 7407,
      "तातोपानी": 7408,
      "निषेध": 7409,
      "गोप": 7410,
      "गराएर": 7411,
      "सिन्डिकेट": 7412,
      "शीत": 7413,
      "गर्यौं": 7414,
      "बालक": 7415,
      "जाप": 7416,
      "सीता": 7417,
      "ब्याट्": 7418,
      "लिम्बू": 7419,
      "फुटबलमा": 7420,
      "ट्रयाक": 7421,
      "प्राधिकरणका": 7422,
      "जीर्ण": 7423,
      "यात्रामा": 7424,
      "प्रकाशितमाघ": 7425,
      "##न्याय": 7426,
      "##ूर": 7427,
      "उर्": 7428,
      "खै": 7429,
      "##एँ": 7430,
      "गोल्ड": 7431,
      "बीपी": 7432,
      "मुहान": 7433,
      "स्रोतको": 7434,
      "घले": 7435,
      "विवादमा": 7436,
      "मिलाउन": 7437,
      "राखिएका": 7438,
      "जोडेको": 7439,
      "##दिनँ": 7440,
      "नुन": 7441,
      "ज्येष्ठ": 7442,
      "##फि": 7443,
      "संस्थाका": 7444,
      "बाँडफाँ": 7445,
      "मान्न": 7446,
      "चाहने": 7447,
      "सैन्य": 7448,
      "विज्ञप्ति": 7449,
      "जगत": 7450,
      "रंगशाला": 7451,
      "अभिनेत्री": 7452,
      "धन्यवाद": 7453,
      "चारै": 7454,
      "इन्डो": 7455,
      "बगा": 7456,
      "साहले": 7457,
      "आक्र": 7458,
      "##ेशन": 7459,
      "पल्ट": 7460,
      "त्यसमाथि": 7461,
      "मोहम्मद": 7462,
      "शिला": 7463,
      "पिता": 7464,
      "गरेँ": 7465,
      "कुरो": 7466,
      "यिनी": 7467,
      "चरम": 7468,
      "नवीन": 7469,
      "कञ्चनपुर": 7470,
      "##टरमा": 7471,
      "करोडको": 7472,
      "अभावले": 7473,
      "पथ": 7474,
      "उप्र": 7475,
      "बनाउनुपर्छ": 7476,
      "##रहने": 7477,
      "##सञ्चार": 7478,
      "##अगाडि": 7479,
      "सानै": 7480,
      "##पादन": 7481,
      "##िएकी": 7482,
      "शुभकामना": 7483,
      "इन्स": 7484,
      "पैदा": 7485,
      "मनाउन": 7486,
      "संघसंस्था": 7487,
      "चुप": 7488,
      "ग्रुप": 7489,
      "अरब": 7490,
      "तपाईंले": 7491,
      "रेखा": 7492,
      "बिघा": 7493,
      "ओर": 7494,
      "महेश": 7495,
      "जाजरको": 7496,
      "वस्तुको": 7497,
      "आर्मीले": 7498,
      "सत्तारुढ": 7499,
      "महाकाली": 7500,
      "पृथ्वी": 7501,
      "##रक्षक": 7502,
      "युएई": 7503,
      "हैसिय": 7504,
      "गुरुयोजना": 7505,
      "कतिपयले": 7506,
      "##रहित": 7507,
      "अध्यय": 7508,
      "परिवर्तनको": 7509,
      "न्यौपानेले": 7510,
      "उनै": 7511,
      "गोर्खा": 7512,
      "देखाउँछ": 7513,
      "तुलसी": 7514,
      "प्लास्टिक": 7515,
      "नत्र": 7516,
      "अन्ध": 7517,
      "बिति": 7518,
      "##दिएका": 7519,
      "##वन्ध": 7520,
      "##त्तो": 7521,
      "वकिल": 7522,
      "##नायक": 7523,
      "डिसे": 7524,
      "बत्ती": 7525,
      "गाडीमा": 7526,
      "अञ्चल": 7527,
      "रजि": 7528,
      "##जनी": 7529,
      "व्यवहारमा": 7530,
      "##थिन्": 7531,
      "बेलुका": 7532,
      "संस्करणमा": 7533,
      "उही": 7534,
      "##दमा": 7535,
      "##ागर": 7536,
      "सुक्": 7537,
      "देखाइ": 7538,
      "##ियु": 7539,
      "चाइ": 7540,
      "##मानी": 7541,
      "अग्लो": 7542,
      "प्रसाद": 7543,
      "पर्दछ": 7544,
      "खोजिएको": 7545,
      "नगर्दा": 7546,
      "##स्त्री": 7547,
      "##दिभ": 7548,
      "उद्यम": 7549,
      "##डब": 7550,
      "##ग्लै": 7551,
      "लापरबाही": 7552,
      "काँग्रेस": 7553,
      "फौ": 7554,
      "मध्यम": 7555,
      "प्रतिशतको": 7556,
      "लेख्ने": 7557,
      "चाहे": 7558,
      "नहोस्": 7559,
      "पत्राचार": 7560,
      "सम्झना": 7561,
      "पक्षलाई": 7562,
      "अत्यन्तै": 7563,
      "##ँदो": 7564,
      "##्रत": 7565,
      "##ग्रहण": 7566,
      "बेस": 7567,
      "खुल्ला": 7568,
      "बहादुर": 7569,
      "विश्वभर": 7570,
      "मिहिने": 7571,
      "##त्रो": 7572,
      "##जति": 7573,
      "फाँ": 7574,
      "बेर": 7575,
      "##िख": 7576,
      "##पाट": 7577,
      "धनगढ": 7578,
      "नवीकरण": 7579,
      "निर्भर": 7580,
      "हाज": 7581,
      "सुनाइन्": 7582,
      "अस्थ": 7583,
      "आर्जन": 7584,
      "प्रवर्द्ध": 7585,
      "कुरै": 7586,
      "मैन": 7587,
      "##तन": 7588,
      "विद्य": 7589,
      "##न्सन": 7590,
      "दुर्गम": 7591,
      "एण्ड": 7592,
      "##म्मे": 7593,
      "##िनियर": 7594,
      "##वनको": 7595,
      "उद्योगले": 7596,
      "बताउँछिन्": 7597,
      "##वासीले": 7598,
      "परीक्षामा": 7599,
      "लाग्थ्यो": 7600,
      "भाजपा": 7601,
      "खोजीमा": 7602,
      "पात": 7603,
      "##सुल": 7604,
      "घटनास्थल": 7605,
      "नोक्स": 7606,
      "##संँग": 7607,
      "सकेसम्म": 7608,
      "गर्दैछ": 7609,
      "लाखको": 7610,
      "नेदर": 7611,
      "प्रेरणा": 7612,
      "पाटन": 7613,
      "##वैशाख": 7614,
      "घुमा": 7615,
      "प्रशोधन": 7616,
      "करीब": 7617,
      "असुर": 7618,
      "महिनापछि": 7619,
      "##स्वरूप": 7620,
      "परिमार्जन": 7621,
      "जानुपर्ने": 7622,
      "हेम": 7623,
      "छवि": 7624,
      "##मानको": 7625,
      "##बाजी": 7626,
      "सकिए": 7627,
      "लाभा": 7628,
      "नसकेका": 7629,
      "##िब": 7630,
      "##ुलीको": 7631,
      "##सिको": 7632,
      "उठाएको": 7633,
      "निम्त्या": 7634,
      "असन्तुष्ट": 7635,
      "थिइन": 7636,
      "लोकतन्त्रको": 7637,
      "##ुप्र": 7638,
      "आन्दोलनका": 7639,
      "संरचनामा": 7640,
      "बिरामीलाई": 7641,
      "मान्छेले": 7642,
      "प्रयत्न": 7643,
      "छाउ": 7644,
      "सुरक्षाका": 7645,
      "##लान": 7646,
      "खाजा": 7647,
      "तिनका": 7648,
      "पर्खाल": 7649,
      "##अर": 7650,
      "नगरे": 7651,
      "लिनु": 7652,
      "खानु": 7653,
      "स्क्र": 7654,
      "गर्भवती": 7655,
      "महिनासम्म": 7656,
      "अलिकति": 7657,
      "रोजगारीका": 7658,
      "##अध्यक्ष": 7659,
      "नेपालमै": 7660,
      "उपसमिति": 7661,
      "रामबहादुर": 7662,
      "आयोगमा": 7663,
      "ब्याजदर": 7664,
      "खल": 7665,
      "विज्ञप्तिमा": 7666,
      "##दको": 7667,
      "पावर": 7668,
      "##लाउने": 7669,
      "क्षेत्रले": 7670,
      "विशेषगरी": 7671,
      "मिल्छ": 7672,
      "विपद्": 7673,
      "छुट्ट": 7674,
      "बजेदेखि": 7675,
      "##दले": 7676,
      "राह": 7677,
      "अवतरण": 7678,
      "नामा": 7679,
      "मृ": 7680,
      "स्तरोन्नति": 7681,
      "कम्प्युटर": 7682,
      "##ासमेत": 7683,
      "##ियालाई": 7684,
      "गरेपनि": 7685,
      "कागजात": 7686,
      "व्यावहारिक": 7687,
      "उप्रेत": 7688,
      "##ैयाँ": 7689,
      "सरल": 7690,
      "पुस्तकाल": 7691,
      "तनहुँ": 7692,
      "राखी": 7693,
      "##ड्रो": 7694,
      "##मानमा": 7695,
      "##िनले": 7696,
      "परिवारमा": 7697,
      "गाइ": 7698,
      "##जारी": 7699,
      "सागर": 7700,
      "कार्यदल": 7701,
      "बाढीले": 7702,
      "सुन्तला": 7703,
      "तर्": 7704,
      "##मेट": 7705,
      "थाइल्यान्ड": 7706,
      "ग्लो": 7707,
      "विजेताले": 7708,
      "लगाउँदै": 7709,
      "नपाइने": 7710,
      "एल्": 7711,
      "छाडेको": 7712,
      "बचाउन": 7713,
      "चुक": 7714,
      "अर्यालले": 7715,
      "एमालेको": 7716,
      "रूपन्देही": 7717,
      "बेइज": 7718,
      "चिर": 7719,
      "नसके": 7720,
      "ब्याट्सम्यान": 7721,
      "रोजगारीमा": 7722,
      "नम्बरमा": 7723,
      "एवम्": 7724,
      "बलिउड": 7725,
      "किन्ने": 7726,
      "जुम्ला": 7727,
      "निकास": 7728,
      "क्वि": 7729,
      "मान्छेको": 7730,
      "##बाटो": 7731,
      "भूभाग": 7732,
      "##िङले": 7733,
      "निकासा": 7734,
      "सङ्ख्या": 7735,
      "समुदायमा": 7736,
      "##र्भिक": 7737,
      "गर्नेलाई": 7738,
      "खातामा": 7739,
      "निकासी": 7740,
      "भोक": 7741,
      "सुने": 7742,
      "महोत्त": 7743,
      "र्या": 7744,
      "लिँदै": 7745,
      "मिलाएर": 7746,
      "धो": 7747,
      "##्यालो": 7748,
      "विच": 7749,
      "स्वास्थ्यमा": 7750,
      "महासंघका": 7751,
      "गहुँ": 7752,
      "युरोपेली": 7753,
      "डरा": 7754,
      "कार्ययोजना": 7755,
      "क्रमशः": 7756,
      "बाहिरी": 7757,
      "कायमै": 7758,
      "##कांक्षा": 7759,
      "ख्याल": 7760,
      "##सुन": 7761,
      "सम्हाल": 7762,
      "ग्राम": 7763,
      "सुधारका": 7764,
      "##तीले": 7765,
      "##हरि": 7766,
      "बदल": 7767,
      "##सतमा": 7768,
      "विश्वव्यापी": 7769,
      "कामदारको": 7770,
      "म्यारा": 7771,
      "खि": 7772,
      "झार": 7773,
      "साँघुरो": 7774,
      "देखेको": 7775,
      "##ँंग": 7776,
      "कार्यालयबाट": 7777,
      "संस्कृत": 7778,
      "कडाइ": 7779,
      "विषयको": 7780,
      "विभागीय": 7781,
      "##ंगे": 7782,
      "बागलुङ": 7783,
      "डोल्पा": 7784,
      "जता": 7785,
      "किनेर": 7786,
      "सद्भाव": 7787,
      "##ाको": 7788,
      "च्याम्पियनसिप": 7789,
      "रामे": 7790,
      "ताप्ले": 7791,
      "कमै": 7792,
      "जनआ": 7793,
      "वक्त": 7794,
      "##अनुरूप": 7795,
      "चैत्र": 7796,
      "लैज": 7797,
      "मुद्दाको": 7798,
      "पाउँछ": 7799,
      "परिचित": 7800,
      "गरेनन्": 7801,
      "आयुक्त": 7802,
      "अशोक": 7803,
      "प्रकोप": 7804,
      "##िनेछ": 7805,
      "उनीहरूका": 7806,
      "खेर": 7807,
      "##विधा": 7808,
      "##स्कृत": 7809,
      "##हुन्न": 7810,
      "##खल": 7811,
      "टेस्ट": 7812,
      "##ञ्जा": 7813,
      "##संर": 7814,
      "##बोट": 7815,
      "##ौटी": 7816,
      "##तेको": 7817,
      "व्यवस्थापनका": 7818,
      "जोडे": 7819,
      "हलमा": 7820,
      "##ंँ": 7821,
      "अर्काे": 7822,
      "सत्तामा": 7823,
      "गैं": 7824,
      "जनयुद्ध": 7825,
      "औंल्या": 7826,
      "##ुलेन्स": 7827,
      "नआएको": 7828,
      "अध्यादेश": 7829,
      "यसपालि": 7830,
      "कार्यपालिका": 7831,
      "पाटो": 7832,
      "##जीकरण": 7833,
      "सभाको": 7834,
      "नसकिएको": 7835,
      "मर्यादा": 7836,
      "थारु": 7837,
      "वृद्धिदर": 7838,
      "##धर": 7839,
      "##अनुसारको": 7840,
      "दिमा": 7841,
      "भूगोल": 7842,
      "गराउँदै": 7843,
      "केटी": 7844,
      "पाएँ": 7845,
      "गैरका": 7846,
      "##लाही": 7847,
      "कष्ट": 7848,
      "समितिलाई": 7849,
      "श्रे": 7850,
      "भारु": 7851,
      "कुराले": 7852,
      "सुरेन्द्र": 7853,
      "ज्व": 7854,
      "##¥यो": 7855,
      "परिसरमा": 7856,
      "भवनको": 7857,
      "अप्ठ्यारो": 7858,
      "विनाश": 7859,
      "काला": 7860,
      "##ण्डको": 7861,
      "झि": 7862,
      "बल्": 7863,
      "सक्छौं": 7864,
      "गरेन": 7865,
      "उड्ड": 7866,
      "खाइ": 7867,
      "दुबई": 7868,
      "लिनुपर्ने": 7869,
      "न्यौपाने": 7870,
      "सरस्वती": 7871,
      "जमिनमा": 7872,
      "पेर": 7873,
      "राजतन्त्र": 7874,
      "पार्टीलाई": 7875,
      "##ष्कार": 7876,
      "सुक": 7877,
      "मुलुकले": 7878,
      "असु": 7879,
      "लागेपछि": 7880,
      "उनीसँग": 7881,
      "भूकम्पपीडित": 7882,
      "प्रतिस्पर्धी": 7883,
      "एम्बुलेन्स": 7884,
      "##यरको": 7885,
      "फर्किएका": 7886,
      "भ्रमणको": 7887,
      "क्रियाशील": 7888,
      "देखाउँदै": 7889,
      "मेहन": 7890,
      "भेग": 7891,
      "ओलीलाई": 7892,
      "ल्याए": 7893,
      "निराशा": 7894,
      "सालदेखि": 7895,
      "##ताप": 7896,
      "अब्": 7897,
      "विल": 7898,
      "भनेकै": 7899,
      "##मन्त्रीले": 7900,
      "कृष्णप्रसाद": 7901,
      "माल्दिभ": 7902,
      "कठिनाइ": 7903,
      "बिष": 7904,
      "##ग्री": 7905,
      "खानेपानीको": 7906,
      "उति": 7907,
      "वृत्त": 7908,
      "सदा": 7909,
      "शक्तिको": 7910,
      "छानविन": 7911,
      "##गाई": 7912,
      "उज्यालो": 7913,
      "आश्च": 7914,
      "विगतका": 7915,
      "##उप": 7916,
      "##समध्ये": 7917,
      "##टपिट": 7918,
      "विक्र": 7919,
      "##िसक्": 7920,
      "विरोधी": 7921,
      "एकताको": 7922,
      "गरेमा": 7923,
      "ढल": 7924,
      "कुटपिट": 7925,
      "अर्थमा": 7926,
      "तिनले": 7927,
      "##तया": 7928,
      "प्रोज": 7929,
      "##फो": 7930,
      "प्रतिफल": 7931,
      "साहित्यकार": 7932,
      "विभागमा": 7933,
      "कार्यान्वयनका": 7934,
      "महानिर्देशक": 7935,
      "##ृंखला": 7936,
      "हावाहु": 7937,
      "महाधिवेश": 7938,
      "प्रधानाध्यापक": 7939,
      "##भर्स": 7940,
      "सहुलियत": 7941,
      "छायाँ": 7942,
      "उद्योगको": 7943,
      "महाले": 7944,
      "जनतामा": 7945,
      "करिडोर": 7946,
      "उहाँलाई": 7947,
      "कपिलवस्तु": 7948,
      "आर्मीका": 7949,
      "झन्झ": 7950,
      "निरीक्षण": 7951,
      "उसका": 7952,
      "लगेको": 7953,
      "फलाम": 7954,
      "छोरीको": 7955,
      "जलवा": 7956,
      "टेन्डर": 7957,
      "छेउमा": 7958,
      "तैपनि": 7959,
      "प्यार": 7960,
      "##गंगा": 7961,
      "हाइड्रो": 7962,
      "गै": 7963,
      "बुझाउने": 7964,
      "रवीन्द्र": 7965,
      "मल्लले": 7966,
      "थाप": 7967,
      "रनले": 7968,
      "प्रत्या": 7969,
      "##ङ्कन": 7970,
      "आइरहेका": 7971,
      "म्याने": 7972,
      "भरि": 7973,
      "##नुपर्दा": 7974,
      "प्रकाशितवैशाख": 7975,
      "प्रयोजन": 7976,
      "विद्यमान": 7977,
      "##चौर": 7978,
      "रक्सी": 7979,
      "पम्प": 7980,
      "बढुवा": 7981,
      "विदा": 7982,
      "वरपर": 7983,
      "शीर्षकमा": 7984,
      "सुवेदी": 7985,
      "बुँदा": 7986,
      "##वाली": 7987,
      "##ठू": 7988,
      "सर्त": 7989,
      "भनिए": 7990,
      "लक्ष्मण": 7991,
      "सिरहा": 7992,
      "छाड्ने": 7993,
      "बन्ध": 7994,
      "रद्द": 7995,
      "चाँडो": 7996,
      "वक्तव्य": 7997,
      "##न्ह": 7998,
      "##ेलो": 7999,
      "घाँस": 8000,
      "##जेष्ठ": 8001,
      "इमान": 8002,
      "बढीको": 8003,
      "व्यवसायीको": 8004,
      "नसक्नु": 8005,
      "नेताहरुले": 8006,
      "ज्ञवालीले": 8007,
      "##केश": 8008,
      "सम्झौतामा": 8009,
      "##मन्त्रीको": 8010,
      "##डीको": 8011,
      "हिं": 8012,
      "##भाग्य": 8013,
      "कलेजमा": 8014,
      "परिकल्पना": 8015,
      "सुरेश": 8016,
      "##द्वय": 8017,
      "आस्था": 8018,
      "पु¥य": 8019,
      "स्वर्ग": 8020,
      "अलैं": 8021,
      "रामेछा": 8022,
      "कटौती": 8023,
      "आराम": 8024,
      "खनि": 8025,
      "बन्दरगाह": 8026,
      "अस्थिर": 8027,
      "##ुअ": 8028,
      "स्वरूप": 8029,
      "सर्लाही": 8030,
      "वेब": 8031,
      "टोट": 8032,
      "##ण्डर": 8033,
      "किनारमा": 8034,
      "मार्ने": 8035,
      "पर्यटकलाई": 8036,
      "सिरिज": 8037,
      "##आफ्नो": 8038,
      "##ज्ज": 8039,
      "प्रदेशले": 8040,
      "जापानी": 8041,
      "माइती": 8042,
      "इँटा": 8043,
      "करोडौं": 8044,
      "पाँचौं": 8045,
      "सफाइ": 8046,
      "##हिक": 8047,
      "##ुरेन्ट": 8048,
      "##वाको": 8049,
      "##ब्लिक": 8050,
      "शिविर": 8051,
      "##लान्": 8052,
      "बढाएर": 8053,
      "पुरुषको": 8054,
      "##भौ": 8055,
      "घुम": 8056,
      "औचित": 8057,
      "गर्नुको": 8058,
      "प्रकाशितजेष्ठ": 8059,
      "ओपनर": 8060,
      "सम्मानित": 8061,
      "जनप्रतिनिधिले": 8062,
      "लुक": 8063,
      "अभिवृद्धि": 8064,
      "बढेका": 8065,
      "भैरहेको": 8066,
      "खेल्नेछ": 8067,
      "ब्रेक": 8068,
      "पर्नेछ": 8069,
      "शासक": 8070,
      "जंगलमा": 8071,
      "##मोहन": 8072,
      "इन्स्ट": 8073,
      "जडीब": 8074,
      "सहमतिमा": 8075,
      "युट्युब": 8076,
      "##्टी": 8077,
      "घण्ट": 8078,
      "चिना": 8079,
      "##कर्मीले": 8080,
      "दर्शकले": 8081,
      "निगमको": 8082,
      "स्थानको": 8083,
      "प्रहरीमा": 8084,
      "स्वरुप": 8085,
      "जोन": 8086,
      "सार्क": 8087,
      "##निका": 8088,
      "उत्खनन": 8089,
      "त्यसमध्ये": 8090,
      "इस्": 8091,
      "##बुल": 8092,
      "सुनसरी": 8093,
      "सुस्त": 8094,
      "##गणना": 8095,
      "तिनलाई": 8096,
      "उड्डयन": 8097,
      "सर्भ": 8098,
      "सवार": 8099,
      "रूपैयाँ": 8100,
      "##लभ": 8101,
      "होली": 8102,
      "रोजगारीको": 8103,
      "आखिर": 8104,
      "आश्र": 8105,
      "बेल्जियम": 8106,
      "हिँड्ने": 8107,
      "##जाउ": 8108,
      "अग्रसर": 8109,
      "नारायणगढ": 8110,
      "बाहिरबाट": 8111,
      "फुटबलको": 8112,
      "छिर": 8113,
      "कार्यक्रमलाई": 8114,
      "दुवैको": 8115,
      "संसद्को": 8116,
      "बझा": 8117,
      "संस्थापक": 8118,
      "औचित्य": 8119,
      "गफ": 8120,
      "##चेत": 8121,
      "छुट्टा": 8122,
      "##तिष्": 8123,
      "फाउन्ड": 8124,
      "ब्रो": 8125,
      "##प्ती": 8126,
      "पहिर": 8127,
      "आल": 8128,
      "मेक्": 8129,
      "भट्टले": 8130,
      "##वश्यक": 8131,
      "जान्छन्": 8132,
      "नेत्र": 8133,
      "अर्कोतिर": 8134,
      "राजनीतिको": 8135,
      "सकेर": 8136,
      "##जीवी": 8137,
      "क्लि": 8138,
      "##पश्चात्": 8139,
      "झोला": 8140,
      "##णु": 8141,
      "मुगु": 8142,
      "बित्": 8143,
      "##र्नु": 8144,
      "सचिवालयले": 8145,
      "संगठित": 8146,
      "मेलामा": 8147,
      "##जीमा": 8148,
      "ऐनको": 8149,
      "सिजनमा": 8150,
      "योग्यता": 8151,
      "मानेर": 8152,
      "महासमिति": 8153,
      "ब्रिट": 8154,
      "एएफ": 8155,
      "##्याली": 8156,
      "फिल्मले": 8157,
      "भन्नेबारे": 8158,
      "##ायर": 8159,
      "##सहितका": 8160,
      "हरियो": 8161,
      "##ट्स": 8162,
      "##ारीको": 8163,
      "##ग्ग": 8164,
      "काठमाडौंबाट": 8165,
      "एजेन्सी": 8166,
      "रहस्य": 8167,
      "गरें": 8168,
      "सिलसि": 8169,
      "अछ": 8170,
      "##लोक": 8171,
      "यसैले": 8172,
      "आश्चर्य": 8173,
      "##षि": 8174,
      "##वृद्ध": 8175,
      "छाला": 8176,
      "ईश्वर": 8177,
      "टिका": 8178,
      "##ेयर": 8179,
      "##ईको": 8180,
      "मापन": 8181,
      "बेच्ने": 8182,
      "दिलाउन": 8183,
      "##ीहरुलाई": 8184,
      "धूलो": 8185,
      "ग्यार": 8186,
      "सारा": 8187,
      "##न्मुख": 8188,
      "बुझेको": 8189,
      "##घात": 8190,
      "जलवायु": 8191,
      "वी": 8192,
      "क्वाटरफाइन": 8193,
      "ताम": 8194,
      "##खान": 8195,
      "उपसचिव": 8196,
      "जिल्लाबाट": 8197,
      "सन्तुलन": 8198,
      "भएकोमा": 8199,
      "##ार्थी": 8200,
      "कार्यान्वयनको": 8201,
      "स्थानीयवासी": 8202,
      "##िकै": 8203,
      "कृषिमा": 8204,
      "दृष्टिले": 8205,
      "अनौपचारिक": 8206,
      "ली": 8207,
      "##बीचमा": 8208,
      "उल्लंघ": 8209,
      "एभर": 8210,
      "ठूलै": 8211,
      "कैयौं": 8212,
      "प्रदेशसभाको": 8213,
      "##ुङ": 8214,
      "गुमाएका": 8215,
      "ट्रान्स": 8216,
      "लेखन": 8217,
      "होमस्टे": 8218,
      "##नेश्वर": 8219,
      "संचाल": 8220,
      "बढ्नु": 8221,
      "प्रकृतिको": 8222,
      "क्ला": 8223,
      "तरल": 8224,
      "स्याङ्": 8225,
      "##ल्दा": 8226,
      "सातौं": 8227,
      "गाउँमै": 8228,
      "व्यवसायमा": 8229,
      "सुरक्षाकर्मी": 8230,
      "भैं": 8231,
      "##म्वा": 8232,
      "गुमाएको": 8233,
      "##क्ताको": 8234,
      "##विक्रम": 8235,
      "करा": 8236,
      "परिकार": 8237,
      "मुलुकलाई": 8238,
      "हुँदाहुँदै": 8239,
      "अनौठो": 8240,
      "पठनपाठ": 8241,
      "साँच्चै": 8242,
      "झगडा": 8243,
      "पुर्याइ": 8244,
      "घुस": 8245,
      "##कुरी": 8246,
      "दायाँ": 8247,
      "फर्किए": 8248,
      "##िएफ": 8249,
      "##विज्ञान": 8250,
      "दोहोर्": 8251,
      "संग्रहालय": 8252,
      "शत": 8253,
      "आवमा": 8254,
      "आर्ट": 8255,
      "##धक": 8256,
      "दस्ता": 8257,
      "प्रश्नको": 8258,
      "क्रिकेटमा": 8259,
      "बढाइएको": 8260,
      "ट्याक्सी": 8261,
      "अनुमो": 8262,
      "जबर्ज": 8263,
      "##पट": 8264,
      "उपचारको": 8265,
      "दुवैले": 8266,
      "थाल्छ": 8267,
      "सभ्य": 8268,
      "बर्खा": 8269,
      "##र्पोर": 8270,
      "##दलीय": 8271,
      "करिव": 8272,
      "स्पेन": 8273,
      "प्रत्यारो": 8274,
      "गज": 8275,
      "सिं": 8276,
      "नेपालीलाई": 8277,
      "सरि": 8278,
      "सिक्न": 8279,
      "हालेर": 8280,
      "किट": 8281,
      "##मलाई": 8282,
      "बोलाएर": 8283,
      "बजेटले": 8284,
      "निर्म": 8285,
      "दिनका": 8286,
      "अन्तर्वार्ता": 8287,
      "बैठकको": 8288,
      "डिल": 8289,
      "मतदा": 8290,
      "##संख्य": 8291,
      "बिभिन्न": 8292,
      "अनुसन्धानका": 8293,
      "स्पर्": 8294,
      "बढीमा": 8295,
      "बस्दा": 8296,
      "##सम्पादन": 8297,
      "गृहकार्य": 8298,
      "गोलरक्षक": 8299,
      "तथ्यांकअनुसार": 8300,
      "##ओवादी": 8301,
      "टिमका": 8302,
      "दशैं": 8303,
      "रोचक": 8304,
      "अगाडी": 8305,
      "लगानीका": 8306,
      "नेतृत्वले": 8307,
      "##मोड": 8308,
      "##न्छु": 8309,
      "सारेको": 8310,
      "##मञ्च": 8311,
      "##सँंग": 8312,
      "गायिका": 8313,
      "जसमध्ये": 8314,
      "श्रद्धा": 8315,
      "प्रकरणमा": 8316,
      "##शरण": 8317,
      "##भियोग": 8318,
      "##वारण": 8319,
      "गुमाएर": 8320,
      "कटान": 8321,
      "अतिथि": 8322,
      "धम्की": 8323,
      "चाहन्छन्": 8324,
      "सुविध": 8325,
      "समाधानका": 8326,
      "साधनको": 8327,
      "यकिन": 8328,
      "##पले": 8329,
      "बसे": 8330,
      "सामेल": 8331,
      "##ग्राही": 8332,
      "छौ": 8333,
      "नस": 8334,
      "महर्जनले": 8335,
      "विधा": 8336,
      "भारतलाई": 8337,
      "मिलन": 8338,
      "एजेन्डा": 8339,
      "##धनको": 8340,
      "खोलाको": 8341,
      "सस": 8342,
      "व्यवस्थापक": 8343,
      "फर्केर": 8344,
      "मेलमिला": 8345,
      "दम्प": 8346,
      "##च्ची": 8347,
      "धुलो": 8348,
      "मनि": 8349,
      "प्रथा": 8350,
      "##स्टेक": 8351,
      "नगरप्रमुख": 8352,
      "फिफा": 8353,
      "पश्चिमी": 8354,
      "##स्वास्थ्य": 8355,
      "आर्सन": 8356,
      "व्यवसायिक": 8357,
      "पच": 8358,
      "मरि": 8359,
      "बेच्न": 8360,
      "सार्व": 8361,
      "परियार": 8362,
      "विषयवस्तु": 8363,
      "मानिसहरु": 8364,
      "ढुक्क": 8365,
      "क्रान्तिकारी": 8366,
      "रेग्मीले": 8367,
      "##नुपर्दछ": 8368,
      "पोर्च": 8369,
      "विवादित": 8370,
      "प्रतिस्पर्धामा": 8371,
      "##पथ्र्यो": 8372,
      "विद्रोही": 8373,
      "ज्योति": 8374,
      "रोड": 8375,
      "##कलमा": 8376,
      "##पावर": 8377,
      "आफैले": 8378,
      "वर्षभन्दा": 8379,
      "चिन्ति": 8380,
      "पाउनुपर्ने": 8381,
      "बट": 8382,
      "##हक": 8383,
      "दायरामा": 8384,
      "गतेको": 8385,
      "केटाकेट": 8386,
      "उठाएका": 8387,
      "##चारु": 8388,
      "चुनौ": 8389,
      "##नेसिया": 8390,
      "कमाउने": 8391,
      "बाधा": 8392,
      "दायरा": 8393,
      "बहिनी": 8394,
      "विवा": 8395,
      "##षक": 8396,
      "सक्यो": 8397,
      "स्थाय": 8398,
      "गे": 8399,
      "छात्रवृत्ति": 8400,
      "धौ": 8401,
      "ठो": 8402,
      "सङ्ग": 8403,
      "आउँदैन": 8404,
      "रक्स": 8405,
      "केदार": 8406,
      "दलहरू": 8407,
      "पाठ्यक्रम": 8408,
      "शर": 8409,
      "##र्ल": 8410,
      "महिलाहरू": 8411,
      "बेग्लै": 8412,
      "छिमेक": 8413,
      "राउतले": 8414,
      "##प्टे": 8415,
      "उत्तम": 8416,
      "चिन्तित": 8417,
      "लम्ब": 8418,
      "उमेरका": 8419,
      "त्रुट": 8420,
      "मुना": 8421,
      "गोप्य": 8422,
      "##प्रसार": 8423,
      "प्रतिशतसम्म": 8424,
      "अभियो": 8425,
      "वातावरणीय": 8426,
      "##कड": 8427,
      "प्रणालीको": 8428,
      "##संरचना": 8429,
      "हामीकहाँ": 8430,
      "पत्रमा": 8431,
      "तिम्रो": 8432,
      "गराउनु": 8433,
      "लाखभन्दा": 8434,
      "बसपार्क": 8435,
      "बन्दुक": 8436,
      "पृष्ठभूमि": 8437,
      "कोहल": 8438,
      "राजन": 8439,
      "हुनुको": 8440,
      "स्तरको": 8441,
      "##सनीय": 8442,
      "##जिअ": 8443,
      "##ठूला": 8444,
      "बालविवाह": 8445,
      "##फ्ले": 8446,
      "बसाइँ": 8447,
      "गणना": 8448,
      "चाहिएको": 8449,
      "खसेको": 8450,
      "##िङका": 8451,
      "##केन्द्र": 8452,
      "##सेर": 8453,
      "लिई": 8454,
      "बार्सिलोना": 8455,
      "निर्वाचनका": 8456,
      "जुत्ता": 8457,
      "बाक्लो": 8458,
      "##फु": 8459,
      "न्यायपालिका": 8460,
      "स्टिकरहरु": 8461,
      "चन्दा": 8462,
      "सान": 8463,
      "धेरैको": 8464,
      "हदसम्म": 8465,
      "छोराको": 8466,
      "##त्रु": 8467,
      "देखिएन": 8468,
      "##ीनारायण": 8469,
      "संघीयताको": 8470,
      "सबैजसो": 8471,
      "भारतसँग": 8472,
      "झोल": 8473,
      "पहिरोले": 8474,
      "खर्चेर": 8475,
      "कारखाना": 8476,
      "आकस्": 8477,
      "संशोधनको": 8478,
      "मेरी": 8479,
      "भय": 8480,
      "##दायक": 8481,
      "हिँड्न": 8482,
      "पढ्नु": 8483,
      "रथ": 8484,
      "##ुवाको": 8485,
      "गिरीले": 8486,
      "तिर्नुपर्ने": 8487,
      "मनोनयन": 8488,
      "अवलम्बन": 8489,
      "पदमार्ग": 8490,
      "हेर्दै": 8491,
      "व्यवसायीलाई": 8492,
      "अना": 8493,
      "##वले": 8494,
      "##टनको": 8495,
      "प्रजिअ": 8496,
      "##स्थापन": 8497,
      "आश्रम": 8498,
      "अख्तियारले": 8499,
      "##तर्फी": 8500,
      "##नुनी": 8501,
      "पुग्छन्": 8502,
      "गोलको": 8503,
      "मधेसमा": 8504,
      "सम्भावित": 8505,
      "राष्ट्रियसभा": 8506,
      "समृद्धिका": 8507,
      "##विर": 8508,
      "सरा": 8509,
      "##धारी": 8510,
      "घन": 8511,
      "हुनुहुन्थ्यो": 8512,
      "कैलाल": 8513,
      "पीडितलाई": 8514,
      "नामको": 8515,
      "वंश": 8516,
      "##धनी": 8517,
      "क्ल": 8518,
      "पाइयो": 8519,
      "विषयगत": 8520,
      "चुनि": 8521,
      "##देन": 8522,
      "##र्सले": 8523,
      "##ारको": 8524,
      "##त्रै": 8525,
      "आफैंमा": 8526,
      "समेटिएको": 8527,
      "व्यवस्थापनको": 8528,
      "आचार": 8529,
      "##तेर": 8530,
      "आकस्मिक": 8531,
      "##स्पति": 8532,
      "##स्रोत": 8533,
      "##मीको": 8534,
      "कुट": 8535,
      "तालमेल": 8536,
      "इले": 8537,
      "कर्पोर": 8538,
      "आवत": 8539,
      "मन्दिरको": 8540,
      "छनोटमा": 8541,
      "थप्": 8542,
      "अर्थतन्त्रमा": 8543,
      "तापक्रम": 8544,
      "निश्च": 8545,
      "##थान": 8546,
      "बुहारी": 8547,
      "खेतमा": 8548,
      "क्वाल": 8549,
      "उत्स": 8550,
      "विकेटले": 8551,
      "साझेदार": 8552,
      "तेज": 8553,
      "बनाउ": 8554,
      "कुमारी": 8555,
      "पुरै": 8556,
      "एनसेल": 8557,
      "गर्नुपरेको": 8558,
      "##अधिकार": 8559,
      "##लाय": 8560,
      "##ाल्ड": 8561,
      "प्रान्त": 8562,
      "बस्नु": 8563,
      "संस्थालाई": 8564,
      "चम्": 8565,
      "निवारण": 8566,
      "पढेर": 8567,
      "एसएसपी": 8568,
      "युवालाई": 8569,
      "ताला": 8570,
      "क्लबका": 8571,
      "संगठनको": 8572,
      "शरीरको": 8573,
      "सावित": 8574,
      "सुनी": 8575,
      "लाभग्राही": 8576,
      "आपसी": 8577,
      "धनकुटा": 8578,
      "मृग": 8579,
      "##म्ची": 8580,
      "जीवित": 8581,
      "स्थानीयलाई": 8582,
      "लेक": 8583,
      "अक्ष": 8584,
      "##ट्रिक": 8585,
      "काट्ने": 8586,
      "इन्जिनियरिङ": 8587,
      "यसकारण": 8588,
      "##गेट": 8589,
      "सम्बन्धन": 8590,
      "रहेकी": 8591,
      "सुदृ": 8592,
      "घोडा": 8593,
      "पोष्ट": 8594,
      "पढाउने": 8595,
      "मकवानपुर": 8596,
      "जिक": 8597,
      "कैदी": 8598,
      "माइक्रो": 8599,
      "##जुमा": 8600,
      "महेन्द्रनगर": 8601,
      "रसिया": 8602,
      "पाएनन्": 8603,
      "मिहिनेत": 8604,
      "##ल्नु": 8605,
      "नक": 8606,
      "##ायो": 8607,
      "प्रदेशलाई": 8608,
      "ज्ञापन": 8609,
      "भेष": 8610,
      "वीरगञ्ज": 8611,
      "राख्नुपर्ने": 8612,
      "न्यायालय": 8613,
      "यूएई": 8614,
      "अचेल": 8615,
      "##भरी": 8616,
      "थपि": 8617,
      "##ईमा": 8618,
      "सम्बन्धलाई": 8619,
      "##कर्मीको": 8620,
      "प्याकेज": 8621,
      "##िँदा": 8622,
      "##जाले": 8623,
      "##न्सले": 8624,
      "आसपासका": 8625,
      "बिचौल": 8626,
      "सुचारु": 8627,
      "साहित्यिक": 8628,
      "सिंगो": 8629,
      "हालको": 8630,
      "एन्ट": 8631,
      "प्रेरित": 8632,
      "रकमको": 8633,
      "स्तरीय": 8634,
      "ठेकेदारले": 8635,
      "##गृह": 8636,
      "गौरी": 8637,
      "भैर": 8638,
      "##चै": 8639,
      "छोरीलाई": 8640,
      "मेक्सिको": 8641,
      "प्रस": 8642,
      "##वको": 8643,
      "##ऊँ": 8644,
      "स्थायित्व": 8645,
      "सकिनेछ": 8646,
      "##न्नु": 8647,
      "लाइफ": 8648,
      "बड": 8649,
      "##दिक": 8650,
      "ठुलो": 8651,
      "डाँडा": 8652,
      "दण्ड": 8653,
      "दर्जनौं": 8654,
      "वर्षौंदेखि": 8655,
      "सहन": 8656,
      "डेब्यु": 8657,
      "गैरकानुनी": 8658,
      "आदान": 8659,
      "लगिएको": 8660,
      "भेटमा": 8661,
      "राष्ट्रपतिको": 8662,
      "##दुई": 8663,
      "##बासी": 8664,
      "देखेपछि": 8665,
      "काटेर": 8666,
      "हिमालयन": 8667,
      "सम्पर्कमा": 8668,
      "धरा": 8669,
      "प्रतिवद्ध": 8670,
      "पर्दै": 8671,
      "म्याराथ": 8672,
      "##कुलपति": 8673,
      "पसलमा": 8674,
      "खाँचो": 8675,
      "पिक": 8676,
      "एकाएक": 8677,
      "##किपर": 8678,
      "लोकमार्ग": 8679,
      "##चानक": 8680,
      "गह": 8681,
      "गर्छिन्": 8682,
      "गठित": 8683,
      "युनियन": 8684,
      "प्राचीन": 8685,
      "एसियन": 8686,
      "दिइरहेका": 8687,
      "झरेको": 8688,
      "मनोरञ्जन": 8689,
      "सेल्": 8690,
      "एश": 8691,
      "सुनेको": 8692,
      "आइपुग्दा": 8693,
      "##थ्य": 8694,
      "चलखेल": 8695,
      "वार्तामा": 8696,
      "पर्वत": 8697,
      "सार्वभौ": 8698,
      "सञ्चालनको": 8699,
      "##है": 8700,
      "फर्किने": 8701,
      "सुन्दा": 8702,
      "गुरुङको": 8703,
      "डिएस": 8704,
      "लिएपछि": 8705,
      "संलग्नता": 8706,
      "नभएसम्म": 8707,
      "बाँच्न": 8708,
      "थलो": 8709,
      "##ठ्": 8710,
      "दुइटा": 8711,
      "अनुमोदन": 8712,
      "##पाइ": 8713,
      "असुल": 8714,
      "उच्चस्तरीय": 8715,
      "ट्वी": 8716,
      "माह": 8717,
      "घरका": 8718,
      "##ञ्जु": 8719,
      "तथ्याङ्क": 8720,
      "##ौलाले": 8721,
      "##र्जी": 8722,
      "##त्वा": 8723,
      "जिज्ञा": 8724,
      "नजिकैको": 8725,
      "विगतको": 8726,
      "##ूत": 8727,
      "सहजीकरण": 8728,
      "अध्ययनले": 8729,
      "महोत्सवमा": 8730,
      "##पट्ट": 8731,
      "यात": 8732,
      "अन्यथा": 8733,
      "खर्चको": 8734,
      "##रुवा": 8735,
      "निकाल्ने": 8736,
      "##च्छुक": 8737,
      "फार्म": 8738,
      "##धमा": 8739,
      "##सेको": 8740,
      "वैद्य": 8741,
      "##खी": 8742,
      "सिंगापुर": 8743,
      "अचानक": 8744,
      "गुम्बा": 8745,
      "नवराज": 8746,
      "फुर्": 8747,
      "जनआन्दोल": 8748,
      "चोर": 8749,
      "##ब्य": 8750,
      "##फर्म": 8751,
      "त्योभन्दा": 8752,
      "पारदर्शी": 8753,
      "वनमा": 8754,
      "कस्ता": 8755,
      "##स्थानमा": 8756,
      "स्थलगत": 8757,
      "##ुद्ध": 8758,
      "##क्रमित": 8759,
      "माउ": 8760,
      "सुनेर": 8761,
      "##तीर्ण": 8762,
      "वाल": 8763,
      "पहलमा": 8764,
      "##मध्य": 8765,
      "कार्यसम्पादन": 8766,
      "##पुर्जा": 8767,
      "विदेशबाट": 8768,
      "लोका": 8769,
      "प्रचारप्रसार": 8770,
      "डोन": 8771,
      "सँगसँगै": 8772,
      "##साको": 8773,
      "विविधता": 8774,
      "सन्तुष्ट": 8775,
      "समयपछि": 8776,
      "जितमा": 8777,
      "भूकम्पपछि": 8778,
      "अपराधी": 8779,
      "अधिवक्ता": 8780,
      "मेलम्ची": 8781,
      "##निर्वा": 8782,
      "भरपर्": 8783,
      "राख्छ": 8784,
      "अनुरुप": 8785,
      "बैत": 8786,
      "भेटवार्ता": 8787,
      "क्षेत्रफल": 8788,
      "लोप": 8789,
      "अत्यावश्यक": 8790,
      "चढेर": 8791,
      "छायांकन": 8792,
      "क्रोएस": 8793,
      "हुनै": 8794,
      "पाँचौ": 8795,
      "निमा": 8796,
      "साबिक": 8797,
      "आक्रामक": 8798,
      "गणित": 8799,
      "ज्वा": 8800,
      "केहीले": 8801,
      "खासमा": 8802,
      "जबकि": 8803,
      "सल्यान": 8804,
      "कफी": 8805,
      "##बेर": 8806,
      "##शामा": 8807,
      "टर्": 8808,
      "##हरुबाट": 8809,
      "घर्ती": 8810,
      "टुर": 8811,
      "##ारण": 8812,
      "खुलेर": 8813,
      "गोठ": 8814,
      "कोषको": 8815,
      "##ेटर": 8816,
      "कामले": 8817,
      "##र्पण": 8818,
      "##ंगिक": 8819,
      "फिल्मका": 8820,
      "लोकसेवा": 8821,
      "अंग्रेज": 8822,
      "सूचीकृत": 8823,
      "##सामु": 8824,
      "##श्मा": 8825,
      "##श्री": 8826,
      "##परेका": 8827,
      "समुदायलाई": 8828,
      "पिच": 8829,
      "अन्याय": 8830,
      "दिलाए": 8831,
      "दिएकी": 8832,
      "प्रसिद्ध": 8833,
      "अनुशासन": 8834,
      "दिनभर": 8835,
      "उपयोगी": 8836,
      "नेटवर्क": 8837,
      "शार": 8838,
      "निकालेर": 8839,
      "##कांक्षी": 8840,
      "अर्थतन्त्रको": 8841,
      "नचाह": 8842,
      "मू": 8843,
      "गरिदिएको": 8844,
      "##फ्र": 8845,
      "उपराष्ट्रपति": 8846,
      "अध्ययनका": 8847,
      "##रहँदा": 8848,
      "पटकको": 8849,
      "चाडपर्": 8850,
      "भन्थे": 8851,
      "जानकी": 8852,
      "##धाम": 8853,
      "##क्ला": 8854,
      "महालेखा": 8855,
      "छुट्टाछुट": 8856,
      "पालो": 8857,
      "##वधि": 8858,
      "प्राज्ञ": 8859,
      "सक्नु": 8860,
      "गोल्डकप": 8861,
      "##ड्न": 8862,
      "प्रियंका": 8863,
      "##ज्यू": 8864,
      "लागूऔषध": 8865,
      "भेगमा": 8866,
      "लगाउनु": 8867,
      "शास्त्र": 8868,
      "सोझो": 8869,
      "पवि": 8870,
      "##जिन": 8871,
      "संस्कृतिको": 8872,
      "जिकिर": 8873,
      "गरेकै": 8874,
      "गतेबाट": 8875,
      "आमालाई": 8876,
      "नन्द": 8877,
      "अवस्थाको": 8878,
      "लभ": 8879,
      "##टारमा": 8880,
      "##ेडिङ": 8881,
      "##मतो": 8882,
      "पढाउन": 8883,
      "मानन्ध": 8884,
      "आना": 8885,
      "##किएको": 8886,
      "हजारको": 8887,
      "गर्दैनन्": 8888,
      "पोखराको": 8889,
      "कारबाहीको": 8890,
      "##वासीको": 8891,
      "##वाहक": 8892,
      "नाकाबन्द": 8893,
      "चेपा": 8894,
      "सर्वसाधारणको": 8895,
      "गल्फ": 8896,
      "प्रस्थान": 8897,
      "त्यसयता": 8898,
      "देखाएका": 8899,
      "मगरले": 8900,
      "गतवर्ष": 8901,
      "##म्बरमा": 8902,
      "पानीमा": 8903,
      "इजलासले": 8904,
      "मस्तिष्": 8905,
      "गर्मी": 8906,
      "दलहरु": 8907,
      "हिन्दी": 8908,
      "##वालले": 8909,
      "दिई": 8910,
      "चारवटा": 8911,
      "हुँदैनन्": 8912,
      "नाति": 8913,
      "रुपैया": 8914,
      "थ्रीस्टार": 8915,
      "इनि": 8916,
      "##ाग्लाइ": 8917,
      "चट": 8918,
      "##कक्ष": 8919,
      "महानगरपालिकाले": 8920,
      "एजेन्ट": 8921,
      "उत्सव": 8922,
      "सन्दीपले": 8923,
      "##ाले": 8924,
      "##िटरको": 8925,
      "माथिको": 8926,
      "बाँझ": 8927,
      "सेवाका": 8928,
      "हाउस": 8929,
      "##जम": 8930,
      "जुटाउन": 8931,
      "झुन्ड": 8932,
      "##सक्यो": 8933,
      "##ट्टी": 8934,
      "औषध": 8935,
      "डुंगा": 8936,
      "##थोक": 8937,
      "काफ्ले": 8938,
      "##च्छे": 8939,
      "पाकिस्तानी": 8940,
      "विमल": 8941,
      "पुस्तकमा": 8942,
      "##जुद": 8943,
      "एसएल": 8944,
      "शिक्षकको": 8945,
      "गाडीको": 8946,
      "##डेन": 8947,
      "मानिसहरू": 8948,
      "लगायतको": 8949,
      "##राउ": 8950,
      "महानगरले": 8951,
      "ल्": 8952,
      "औषधी": 8953,
      "डिएसपी": 8954,
      "झड": 8955,
      "न्युन": 8956,
      "क्षेत्रफलमा": 8957,
      "आइसकेको": 8958,
      "राइ": 8959,
      "सकिएन": 8960,
      "##न्सको": 8961,
      "##त्तिको": 8962,
      "मध्यप": 8963,
      "विन्दु": 8964,
      "हाजिर": 8965,
      "##वंश": 8966,
      "##ंले": 8967,
      "राख्दा": 8968,
      "अस्व": 8969,
      "सेनाका": 8970,
      "दार्चु": 8971,
      "टुट": 8972,
      "##िपि": 8973,
      "##िकरण": 8974,
      "भनिने": 8975,
      "क्रिकेटको": 8976,
      "कोषमा": 8977,
      "सुनिल": 8978,
      "तेह्र": 8979,
      "भव्य": 8980,
      "सवै": 8981,
      "स्टा": 8982,
      "खाले": 8983,
      "काट्न": 8984,
      "तटबन्ध": 8985,
      "धितो": 8986,
      "विकट": 8987,
      "अनुसारको": 8988,
      "जिता": 8989,
      "बेलाबेला": 8990,
      "माक्": 8991,
      "परिचाल": 8992,
      "विश्वविद्यालयको": 8993,
      "ग्लोबल": 8994,
      "##षित": 8995,
      "##नेजु": 8996,
      "गर्दैछन्": 8997,
      "घटाउन": 8998,
      "बाह्र": 8999,
      "कानुनले": 9000,
      "खण्डको": 9001,
      "विहान": 9002,
      "सबैका": 9003,
      "नपाउँदा": 9004,
      "समारोह": 9005,
      "##्याउँदै": 9006,
      "##आज": 9007,
      "तपाईंलाई": 9008,
      "रौन": 9009,
      "संरक्षणमा": 9010,
      "उसै": 9011,
      "जवान": 9012,
      "हप्": 9013,
      "परिरहेको": 9014,
      "उदार": 9015,
      "प्रदेशसभामा": 9016,
      "ढुंगाना": 9017,
      "क्रिस्ट": 9018,
      "फर्केका": 9019,
      "तीव्रता": 9020,
      "निर्देशनमा": 9021,
      "टावर": 9022,
      "फेसबुकमा": 9023,
      "##चरण": 9024,
      "पालामा": 9025,
      "नियन्त्रणका": 9026,
      "##ण्डी": 9027,
      "माओवादीको": 9028,
      "जिस": 9029,
      "पठाएका": 9030,
      "मेहनत": 9031,
      "प्रमुखको": 9032,
      "सक्नेछन्": 9033,
      "##ङ्गल": 9034,
      "विम": 9035,
      "समुह": 9036,
      "नेवि": 9037,
      "आउजाउ": 9038,
      "वेस्ट": 9039,
      "केन्द्रबाट": 9040,
      "##तापूर्वक": 9041,
      "वेबसाइ": 9042,
      "छुट्टाछुट्टै": 9043,
      "प्रज्ञा": 9044,
      "निर्णयमा": 9045,
      "सर्वसाधारणले": 9046,
      "##एच": 9047,
      "हुवा": 9048,
      "दिप": 9049,
      "आफूहरू": 9050,
      "गर्नुपर्यो": 9051,
      "बहुम": 9052,
      "लुम्बिन": 9053,
      "ओगट": 9054,
      "मसँग": 9055,
      "##प्स": 9056,
      "बोली": 9057,
      "खत्रीले": 9058,
      "दुनियाँ": 9059,
      "##वरको": 9060,
      "गुठ": 9061,
      "डलरको": 9062,
      "फस्ट": 9063,
      "##डाँडा": 9064,
      "विड": 9065,
      "तिर्ने": 9066,
      "मन्त्रालयलाई": 9067,
      "पराजुली": 9068,
      "मन्त्रिपरिषद्को": 9069,
      "घिस": 9070,
      "नजर": 9071,
      "निश": 9072,
      "राष्ट्रपतिले": 9073,
      "उत्तीर्ण": 9074,
      "भेटिएका": 9075,
      "टेलिफोन": 9076,
      "स्नातक": 9077,
      "सुरुआत": 9078,
      "आम्दान": 9079,
      "फुल": 9080,
      "शोषण": 9081,
      "##ौता": 9082,
      "सेप्टे": 9083,
      "क्रस": 9084,
      "नेप्से": 9085,
      "मिथि": 9086,
      "साटो": 9087,
      "रुपा": 9088,
      "यतिखेर": 9089,
      "सिस्टम": 9090,
      "सफ्ट": 9091,
      "अदालतका": 9092,
      "सहकार्यमा": 9093,
      "अस्ट्रेलिया": 9094,
      "बर्दिया": 9095,
      "##कामा": 9096,
      "दलीय": 9097,
      "मान्छेलाई": 9098,
      "भेनेजु": 9099,
      "नोभे": 9100,
      "तिरेर": 9101,
      "खतिवडा": 9102,
      "##भएको": 9103,
      "##सम्मत": 9104,
      "कसुर": 9105,
      "तुलनात्मक": 9106,
      "परिसू": 9107,
      "गरिँदै": 9108,
      "बिम": 9109,
      "सदस्यमा": 9110,
      "सतर्क": 9111,
      "अध्यक्षतामा": 9112,
      "##न्जा": 9113,
      "रोकि": 9114,
      "उन्मुख": 9115,
      "निर्देशित": 9116,
      "अभियोगमा": 9117,
      "अहिलेका": 9118,
      "##शनल": 9119,
      "जबर्जस्ती": 9120,
      "प्रजातान्त्रिक": 9121,
      "चलेका": 9122,
      "##सभ": 9123,
      "##व्": 9124,
      "##टीमा": 9125,
      "युभेन्ट": 9126,
      "चर्क": 9127,
      "नमि": 9128,
      "सुकु": 9129,
      "हेर्नु": 9130,
      "पाइला": 9131,
      "बाँके": 9132,
      "बालुवाटार": 9133,
      "बुझेर": 9134,
      "सधैँ": 9135,
      "नार": 9136,
      "फ्": 9137,
      "##ँगा": 9138,
      "क्विन्टल": 9139,
      "##ोली": 9140,
      "संसारमा": 9141,
      "रंगशालामा": 9142,
      "अप्रिल": 9143,
      "गर्दछन्": 9144,
      "त्यतिखेर": 9145,
      "नौलो": 9146,
      "##योर्क": 9147,
      "उपभोक्ताले": 9148,
      "थन्क": 9149,
      "उल्लंघन": 9150,
      "##करणको": 9151,
      "##अफ": 9152,
      "##जका": 9153,
      "##मिल": 9154,
      "सम्भाव्यता": 9155,
      "नलाग्ने": 9156,
      "शिलान्यास": 9157,
      "##प्रेम": 9158,
      "लामिछाने": 9159,
      "आएन": 9160,
      "जाय": 9161,
      "महिनावारी": 9162,
      "विद्यादेवी": 9163,
      "भित्र्याउने": 9164,
      "ध्वस्त": 9165,
      "मिडफिल्": 9166,
      "##षाध्यक्ष": 9167,
      "पुरात": 9168,
      "लोडस": 9169,
      "दिनमै": 9170,
      "##ुलीले": 9171,
      "कान्छी": 9172,
      "हुदै": 9173,
      "कमला": 9174,
      "##टिक": 9175,
      "नेम्वा": 9176,
      "बोकेका": 9177,
      "ड्राइ": 9178,
      "सोलु": 9179,
      "कोटा": 9180,
      "ब्युरो": 9181,
      "##ामगर": 9182,
      "स्मार": 9183,
      "शिक्षकले": 9184,
      "भेरी": 9185,
      "रेग्मी": 9186,
      "##मर": 9187,
      "##ल्छ": 9188,
      "##ाउँथे": 9189,
      "##ेन्टी": 9190,
      "भुवन": 9191,
      "अर्याल": 9192,
      "##वित्त": 9193,
      "रूपमै": 9194,
      "दिवसको": 9195,
      "भण्डारण": 9196,
      "पृथ्वीनारायण": 9197,
      "त्रुटि": 9198,
      "जनावर": 9199,
      "##वर्ग": 9200,
      "इन्डोनेसिया": 9201,
      "इर": 9202,
      "बन्नु": 9203,
      "सम्ममा": 9204,
      "##खुवा": 9205,
      "घट्दै": 9206,
      "दैनिकी": 9207,
      "##ड्रिड": 9208,
      "प्रचण्डको": 9209,
      "सम्हा": 9210,
      "म्यानचेस्टर": 9211,
      "सिनियर": 9212,
      "##स्म": 9213,
      "सुह": 9214,
      "##म्भव": 9215,
      "छैटौं": 9216,
      "दाल": 9217,
      "व्रत": 9218,
      "बनाइने": 9219,
      "सरोज": 9220,
      "##रहेकी": 9221,
      "बीबी": 9222,
      "त्यसैको": 9223,
      "सत्तापक्ष": 9224,
      "जिति": 9225,
      "घटनाले": 9226,
      "दिइरहेको": 9227,
      "##न्दी": 9228,
      "कन्स्ट्र": 9229,
      "पुग्दैन": 9230,
      "##पुस": 9231,
      "मन्त्रीले": 9232,
      "क्लबलाई": 9233,
      "रणनीतिक": 9234,
      "शिविरमा": 9235,
      "अक्स": 9236,
      "सज": 9237,
      "बैंकहरूले": 9238,
      "असहज": 9239,
      "पेरिस": 9240,
      "खुल": 9241,
      "##धाई": 9242,
      "##र्नर": 9243,
      "काभ्र": 9244,
      "पुष": 9245,
      "गर्नुहुन्छ": 9246,
      "दर्शकको": 9247,
      "नेपालकै": 9248,
      "खेलका": 9249,
      "सुमन": 9250,
      "पढ्दा": 9251,
      "अंकले": 9252,
      "##मोल": 9253,
      "##उँथे": 9254,
      "ल्याउनु": 9255,
      "भएनन्": 9256,
      "अपांगता": 9257,
      "स्वाय": 9258,
      "सार्थ": 9259,
      "##ेटी": 9260,
      "प्रतिशतमा": 9261,
      "फरवार्ड": 9262,
      "आक्रमणमा": 9263,
      "छैन्": 9264,
      "संयोग": 9265,
      "##ख्यात": 9266,
      "लाइनमा": 9267,
      "##जंग": 9268,
      "##कारको": 9269,
      "कामना": 9270,
      "कुशल": 9271,
      "पुनराव": 9272,
      "ट्विटर": 9273,
      "थालनी": 9274,
      "छाडेका": 9275,
      "तराईका": 9276,
      "इटहरी": 9277,
      "सभासद्": 9278,
      "रोका": 9279,
      "##फामा": 9280,
      "वनस्पति": 9281,
      "प्रवि": 9282,
      "चौर": 9283,
      "##ुनी": 9284,
      "सुनार": 9285,
      "हुँदो": 9286,
      "##ुकी": 9287,
      "रोय": 9288,
      "##सिड": 9289,
      "खोटा": 9290,
      "शान्तिपूर्ण": 9291,
      "बित्तिकै": 9292,
      "नापी": 9293,
      "लन्डन": 9294,
      "प्रचलित": 9295,
      "मामि": 9296,
      "सर्वसाधारणलाई": 9297,
      "नियमावल": 9298,
      "आँट": 9299,
      "##िड": 9300,
      "सुटिङ": 9301,
      "प्रयासमा": 9302,
      "##ार्ट": 9303,
      "कार्यक्रमले": 9304,
      "संकटमा": 9305,
      "शेर्पाले": 9306,
      "सहारा": 9307,
      "सिंग": 9308,
      "युनिभर्स": 9309,
      "इलेक्ट": 9310,
      "##हाल्छ": 9311,
      "सापकोटाले": 9312,
      "बुटव": 9313,
      "च्याम्पियनसिपमा": 9314,
      "कान्छा": 9315,
      "तर्जुमा": 9316,
      "मच्च": 9317,
      "##हानामा": 9318,
      "फेल": 9319,
      "दलहरूले": 9320,
      "टिमलाई": 9321,
      "पुलिसले": 9322,
      "सुन्ने": 9323,
      "मन्त्रीको": 9324,
      "अभिभावकले": 9325,
      "##संख्यक": 9326,
      "##ललाई": 9327,
      "पार्टीभित्र": 9328,
      "दशकमा": 9329,
      "जडीबुटी": 9330,
      "छँदै": 9331,
      "लाग्नु": 9332,
      "##दिनु": 9333,
      "यज्ञ": 9334,
      "ठाउँबाट": 9335,
      "घाउ": 9336,
      "##पेर": 9337,
      "कोसिस": 9338,
      "कम्तिमा": 9339,
      "आवतजा": 9340,
      "टोक": 9341,
      "##विज्ञ": 9342,
      "राजश्व": 9343,
      "सम्मेलनको": 9344,
      "नेवार": 9345,
      "राखेप": 9346,
      "विद्यालयलाई": 9347,
      "वामपन्थी": 9348,
      "##र्व": 9349,
      "राखि": 9350,
      "उठ्न": 9351,
      "उकालो": 9352,
      "##पछिका": 9353,
      "उब्": 9354,
      "दाना": 9355,
      "##क्व": 9356,
[...]
